<pad>	0
<s>	0
</s>	0
<unk>	0
▁t	-0
▁.	-1
▁i	-2
ou	-3
▁a	-4
he	-5
▁s	-6
▁w	-7
▁y	-8
▁m	-9
▁you	-10
re	-11
in	-12
▁,	-13
ha	-14
▁the	-15
▁d	-16
on	-17
▁b	-18
▁?	-19
▁c	-20
▁l	-21
ve	-22
▁g	-23
▁f	-24
▁to	-25
ing	-26
▁n	-27
an	-28
hat	-29
ll	-30
▁o	-31
or	-32
▁p	-33
er	-34
▁an	-35
▁it	-36
▁he	-37
st	-38
en	-39
ow	-40
hi	-41
ot	-42
ed	-43
et	-44
om	-45
es	-46
ar	-47
▁we	-48
it	-49
▁ha	-50
▁in	-51
▁re	-52
▁that	-53
▁be	-54
ay	-55
▁of	-56
▁and	-57
▁k	-58
at	-59
▁me	-60
▁what	-61
▁e	-62
le	-63
as	-64
▁!	-65
▁do	-66
▁h	-67
▁on	-68
gh	-69
ri	-70
ld	-71
▁u	-72
▁th	-73
▁is	-74
se	-75
id	-76
▁go	-77
ck	-78
ut	-79
out	-80
his	-81
▁j	-82
ke	-83
ver	-84
▁li	-85
▁for	-86
ght	-87
▁don	-88
▁kn	-89
al	-90
▁st	-91
▁not	-92
▁know	-93
▁your	-94
▁this	-95
ce	-96
▁have	-97
▁my	-98
ad	-99
ust	-100
▁was	-101
▁no	-102
▁wh	-103
ome	-104
ould	-105
ith	-106
am	-107
ant	-108
▁with	-109
ro	-110
▁can	-111
ee	-112
▁but	-113
ill	-114
ch	-115
ly	-116
▁are	-117
all	-118
▁ne	-119
▁hi	-120
oo	-121
ir	-122
ent	-123
her	-124
▁get	-125
ct	-126
▁so	-127
▁just	-128
ion	-129
ea	-130
▁they	-131
▁ab	-132
▁all	-133
▁like	-134
▁whe	-135
hing	-136
nd	-137
▁ll	-138
ink	-139
▁want	-140
▁as	-141
is	-142
▁did	-143
▁out	-144
▁su	-145
od	-146
▁there	-147
▁about	-148
ra	-149
im	-150
▁ri	-151
▁if	-152
ry	-153
▁got	-154
▁think	-155
▁here	-156
▁up	-157
one	-158
▁him	-159
▁at	-160
▁any	-161
ake	-162
pp	-163
ell	-164
▁sh	-165
▁she	-166
▁how	-167
▁ve	-168
ic	-169
▁de	-170
▁wor	-171
our	-172
ore	-173
ter	-174
▁who	-175
▁one	-176
very	-177
un	-178
▁now	-179
ack	-180
ight	-181
ie	-182
ook	-183
op	-184
▁well	-185
ive	-186
▁some	-187
▁al	-188
▁see	-189
il	-190
▁right	-191
ind	-192
and	-193
han	-194
▁why	-195
ess	-196
ur	-197
▁r	-198
us	-199
art	-200
▁her	-201
ally	-202
▁say	-203
ge	-204
▁man	-205
▁fr	-206
▁look	-207
au	-208
▁would	-209
▁going	-210
▁lo	-211
▁oh	-212
▁tell	-213
uck	-214
ig	-215
fe	-216
▁tim	-217
▁yes	-218
▁or	-219
end	-220
▁good	-221
eah	-222
▁us	-223
▁yeah	-224
▁ex	-225
▁sa	-226
▁gu	-227
▁will	-228
▁when	-229
ain	-230
▁pl	-231
ame	-232
▁where	-233
red	-234
▁se	-235
▁were	-236
▁his	-237
▁com	-238
rou	-239
▁time	-240
▁could	-241
ast	-242
ong	-243
ate	-244
ble	-245
alk	-246
ol	-247
ers	-248
▁let	-249
▁been	-250
os	-251
ul	-252
▁from	-253
▁som	-254
▁v	-255
▁thing	-256
▁than	-257
▁back	-258
way	-259
na	-260
▁then	-261
▁con	-262
▁somet	-263
qu	-264
nt	-265
▁come	-266
ine	-267
▁them	-268
ak	-269
ard	-270
▁every	-271
▁sp	-272
um	-273
ice	-274
ear	-275
ous	-276
▁too	-277
▁tw	-278
ation	-279
▁never	-280
▁didn	-281
lf	-282
thing	-283
▁mean	-284
if	-285
▁off	-286
▁may	-287
▁pro	-288
other	-289
own	-290
▁talk	-291
▁am	-292
itt	-293
▁cl	-294
▁take	-295
▁had	-296
▁mo	-297
▁fuck	-298
▁int	-299
▁ro	-300
▁something	-301
▁way	-302
▁really	-303
ven	-304
are	-305
▁ag	-306
ick	-307
be	-308
▁pre	-309
ort	-310
▁need	-311
▁work	-312
▁call	-313
▁does	-314
▁jo	-315
▁happ	-316
▁make	-317
ody	-318
▁ok	-319
▁more	-320
▁pe	-321
▁af	-322
▁sure	-323
ist	-324
ause	-325
▁by	-326
ase	-327
▁over	-328
▁qu	-329
ittle	-330
▁bo	-331
▁bl	-332
hit	-333
ose	-334
em	-335
▁mu	-336
▁should	-337
▁guy	-338
▁bet	-339
▁down	-340
ty	-341
ap	-342
▁tr	-343
▁little	-344
▁our	-345
ab	-346
▁love	-347
onna	-348
▁bec	-349
▁very	-350
▁gonna	-351
ure	-352
▁en	-353
▁okay	-354
▁has	-355
ople	-356
▁people	-357
▁br	-358
▁mr	-359
▁sc	-360
ber	-361
ther	-362
▁only	-363
▁give	-364
▁mar	-365
▁much	-366
▁kill	-367
▁maybe	-368
ect	-369
▁won	-370
ace	-371
oney	-372
ag	-373
body	-374
▁said	-375
ought	-376
▁two	-377
▁co	-378
▁hu	-379
self	-380
ss	-381
▁le	-382
▁lea	-383
ff	-384
ound	-385
▁other	-386
est	-387
▁year	-388
nder	-389
▁happen	-390
▁god	-391
▁even	-392
ving	-393
eel	-394
▁bel	-395
iss	-396
ree	-397
▁day	-398
▁because	-399
▁un	-400
▁bu	-401
reat	-402
▁ar	-403
▁thank	-404
▁ask	-405
▁under	-406
el	-407
ies	-408
▁nothing	-409
▁anything	-410
th	-411
▁dr	-412
▁hell	-413
ather	-414
ity	-415
▁wa	-416
▁ple	-417
ide	-418
riend	-419
▁feel	-420
▁ever	-421
▁money	-422
▁sor	-423
▁must	-424
ough	-425
ting	-426
▁new	-427
▁find	-428
ning	-429
▁try	-430
▁into	-431
ew	-432
round	-433
▁life	-434
fore	-435
▁hel	-436
ment	-437
eep	-438
ire	-439
ta	-440
▁sorry	-441
▁belie	-442
▁wait	-443
de	-444
pl	-445
▁thought	-446
▁gir	-447
▁before	-448
wn	-449
▁po	-450
▁long	-451
▁shit	-452
▁whi	-453
▁night	-454
▁believe	-455
ue	-456
▁fir	-457
▁last	-458
▁again	-459
▁el	-460
ady	-461
▁help	-462
▁after	-463
▁these	-464
▁ch	-465
ac	-466
▁har	-467
▁doing	-468
▁car	-469
▁home	-470
▁still	-471
ass	-472
▁im	-473
ool	-474
▁wr	-475
▁better	-476
▁put	-477
row	-478
ep	-479
▁first	-480
▁rem	-481
ade	-482
ish	-483
▁cou	-484
▁told	-485
▁cour	-486
▁min	-487
▁please	-488
▁friend	-489
▁stu	-490
der	-491
▁girl	-492
per	-493
ite	-494
▁sm	-495
▁old	-496
▁kind	-497
▁keep	-498
ways	-499
▁around	-500
age	-501
▁things	-502
▁years	-503
▁per	-504
▁big	-505
▁cha	-506
▁always	-507
▁em	-508
▁sw	-509
▁sir	-510
▁act	-511
▁che	-512
▁ass	-513
day	-514
▁kid	-515
▁name	-516
▁isn	-517
▁care	-518
▁pr	-519
ft	-520
get	-521
▁part	-522
▁those	-523
▁chan	-524
ood	-525
▁everything	-526
▁fa	-527
▁ma	-528
urn	-529
▁sha	-530
▁their	-531
ord	-532
▁lot	-533
▁mon	-534
▁start	-535
▁course	-536
iz	-537
▁ho	-538
▁father	-539
▁real	-540
▁chi	-541
▁mat	-542
ci	-543
▁list	-544
▁place	-545
▁underst	-546
▁ad	-547
▁show	-548
▁supp	-549
pt	-550
ried	-551
ix	-552
▁live	-553
▁remem	-554
ory	-555
▁bad	-556
ond	-557
man	-558
▁ra	-559
▁hand	-560
▁boy	-561
▁wat	-562
▁wom	-563
int	-564
▁doesn	-565
▁fl	-566
▁hey	-567
▁guess	-568
▁tra	-569
▁bus	-570
▁understand	-571
ank	-572
▁play	-573
▁away	-574
▁remember	-575
▁ac	-576
▁stay	-577
▁great	-578
▁mind	-579
▁leave	-580
▁talking	-581
▁dis	-582
▁ser	-583
▁run	-584
ouse	-585
▁else	-586
▁hear	-587
ute	-588
ress	-589
▁job	-590
een	-591
▁dead	-592
▁gr	-593
▁listen	-594
▁mother	-595
▁might	-596
▁mak	-597
ance	-598
▁dad	-599
▁wouldn	-600
▁another	-601
▁own	-602
oss	-603
▁head	-604
▁three	-605
ren	-606
▁sl	-607
ful	-608
ious	-609
▁made	-610
▁sec	-611
ach	-612
hed	-613
able	-614
▁miss	-615
▁ain	-616
rough	-617
sp	-618
▁fucking	-619
▁world	-620
▁la	-621
▁mom	-622
ull	-623
▁five	-624
▁through	-625
ise	-626
▁gotta	-627
▁wanted	-628
▁happened	-629
▁cra	-630
▁enough	-631
▁nice	-632
▁came	-633
▁huh	-634
ger	-635
▁house	-636
▁stop	-637
ict	-638
▁tom	-639
▁getting	-640
▁uh	-641
ian	-642
amn	-643
▁war	-644
▁fine	-645
son	-646
ence	-647
▁wrong	-648
▁room	-649
▁someone	-650
ert	-651
▁id	-652
▁rec	-653
▁tak	-654
▁wasn	-655
ek	-656
ath	-657
▁heard	-658
dy	-659
ign	-660
pe	-661
orn	-662
ia	-663
ng	-664
og	-665
▁done	-666
▁left	-667
ons	-668
▁imp	-669
▁haven	-670
ms	-671
▁app	-672
▁plan	-673
▁yourself	-674
act	-675
▁comm	-676
▁being	-677
ary	-678
▁mor	-679
ple	-680
▁sho	-681
▁di	-682
mm	-683
iness	-684
▁ins	-685
▁four	-686
▁word	-687
ndred	-688
▁hundred	-689
▁pret	-690
▁pers	-691
▁son	-692
▁gl	-693
leep	-694
▁guys	-695
rest	-696
ever	-697
▁jack	-698
▁went	-699
▁knew	-700
▁meet	-701
ey	-702
▁pri	-703
▁same	-704
▁week	-705
▁dif	-706
▁ton	-707
▁seen	-708
▁saw	-709
ually	-710
▁best	-711
▁coming	-712
ub	-713
ave	-714
ions	-715
▁hard	-716
▁looking	-717
ars	-718
▁most	-719
▁which	-720
▁fun	-721
▁hour	-722
▁matter	-723
▁trying	-724
▁sin	-725
hip	-726
▁exp	-727
▁thanks	-728
▁wi	-729
▁comp	-730
▁business	-731
oth	-732
ved	-733
orrow	-734
▁pay	-735
▁six	-736
my	-737
▁hop	-738
▁pol	-739
▁woman	-740
reak	-741
ated	-742
▁ten	-743
▁count	-744
▁tonight	-745
▁men	-746
osed	-747
▁stuff	-748
▁ph	-749
▁called	-750
▁use	-751
▁says	-752
▁te	-753
▁bit	-754
▁cle	-755
▁person	-756
anc	-757
▁cont	-758
▁many	-759
here	-760
▁bar	-761
▁str	-762
aught	-763
ctor	-764
ousand	-765
▁thousand	-766
ock	-767
▁drink	-768
xt	-769
▁once	-770
▁hat	-771
▁found	-772
▁proble	-773
orm	-774
▁bab	-775
▁turn	-776
▁hur	-777
▁fin	-778
▁thi	-779
▁used	-780
▁fam	-781
▁ya	-782
ible	-783
▁without	-784
▁tri	-785
▁quest	-786
▁deal	-787
▁rep	-788
▁tomorrow	-789
▁whole	-790
▁pretty	-791
ps	-792
▁des	-793
▁idea	-794
▁next	-795
▁sleep	-796
ark	-797
▁op	-798
ny	-799
▁sound	-800
sw	-801
▁morning	-802
▁end	-803
ream	-804
▁brother	-805
▁sit	-806
ves	-807
▁since	-808
▁while	-809
▁couldn	-810
gin	-811
rist	-812
▁sch	-813
▁bring	-814
▁met	-815
▁prob	-816
hes	-817
▁few	-818
ready	-819
▁already	-820
ug	-821
▁fif	-822
▁killed	-823
▁diffe	-824
▁watch	-825
enty	-826
▁att	-827
▁fo	-828
aut	-829
▁far	-830
▁yet	-831
▁wonder	-832
▁point	-833
▁myself	-834
▁check	-835
zy	-836
▁set	-837
▁inte	-838
▁exc	-839
▁hold	-840
▁pick	-841
ily	-842
▁dri	-843
ner	-844
▁half	-845
▁knows	-846
▁jes	-847
▁baby	-848
▁alone	-849
ably	-850
▁exact	-851
av	-852
right	-853
▁walk	-854
▁sen	-855
▁sur	-856
▁such	-857
▁gun	-858
▁wife	-859
▁school	-860
eak	-861
ason	-862
ident	-863
▁char	-864
gether	-865
no	-866
▁shot	-867
▁interest	-868
▁eat	-869
▁hot	-870
▁rel	-871
▁beaut	-872
ors	-873
eet	-874
▁acc	-875
▁doll	-876
▁hello	-877
▁together	-878
▁took	-879
▁stand	-880
▁saying	-881
▁mrs	-882
▁somebody	-883
ud	-884
▁anyone	-885
uth	-886
rew	-887
▁days	-888
▁thir	-889
▁read	-890
▁pat	-891
▁friends	-892
▁today	-893
▁anyway	-894
me	-895
▁ap	-896
ither	-897
▁minute	-898
▁probably	-899
▁open	-900
▁black	-901
where	-902
▁damn	-903
▁wants	-904
ations	-905
▁exactly	-906
▁problem	-907
ical	-908
▁second	-909
▁actually	-910
▁poss	-911
▁mil	-912
▁story	-913
les	-914
▁break	-915
anna	-916
ness	-917
▁move	-918
ost	-919
▁hope	-920
▁ear	-921
▁makes	-922
▁gone	-923
▁prom	-924
▁child	-925
ang	-926
▁gra	-927
▁trou	-928
▁aw	-929
▁ben	-930
▁wanna	-931
hn	-932
ret	-933
▁ey	-934
▁true	-935
▁supposed	-936
asy	-937
▁unt	-938
ans	-939
▁pres	-940
ail	-941
pped	-942
vent	-943
▁fire	-944
▁shut	-945
▁pow	-946
med	-947
iful	-948
▁law	-949
ition	-950
rent	-951
▁john	-952
▁crazy	-953
▁worry	-954
▁twenty	-955
▁married	-956
▁working	-957
raid	-958
vil	-959
fect	-960
▁ter	-961
▁doctor	-962
▁ago	-963
▁dec	-964
▁aren	-965
▁bull	-966
▁forget	-967
▁rest	-968
▁nobody	-969
▁thinking	-970
▁cap	-971
less	-972
▁month	-973
cept	-974
▁cause	-975
ding	-976
ister	-977
▁afraid	-978
ract	-979
▁jesus	-980
▁christ	-981
vel	-982
▁hum	-983
▁luck	-984
▁shoot	-985
▁trust	-986
▁ed	-987
▁die	-988
ins	-989
▁bed	-990
▁soon	-991
▁late	-992
▁until	-993
▁beautiful	-994
unk	-995
▁cat	-996
li	-997
▁sk	-998
llow	-999
utes	-1000
▁bro	-1001
▁young	-1002
▁det	-1003
ize	-1004
ater	-1005
▁dro	-1006
▁everybody	-1007
▁air	-1008
▁change	-1009
▁whatever	-1010
ont	-1011
▁happy	-1012
ef	-1013
▁compl	-1014
▁police	-1015
▁minutes	-1016
aul	-1017
▁each	-1018
▁fight	-1019
▁speak	-1020
use	-1021
ired	-1022
▁hit	-1023
▁lost	-1024
ared	-1025
▁case	-1026
▁mine	-1027
▁looks	-1028
▁cop	-1029
ned	-1030
▁trouble	-1031
ump	-1032
▁sim	-1033
▁godd	-1034
vie	-1035
head	-1036
▁face	-1037
▁dream	-1038
▁least	-1039
▁bri	-1040
▁family	-1041
ying	-1042
▁num	-1043
▁game	-1044
▁gave	-1045
▁pass	-1046
ork	-1047
▁fuckin	-1048
▁dollars	-1049
▁mur	-1050
▁fig	-1051
▁telling	-1052
▁question	-1053
▁dep	-1054
▁high	-1055
▁having	-1056
▁ent	-1057
▁hate	-1058
▁quite	-1059
gg	-1060
ib	-1061
enc	-1062
▁answ	-1063
▁both	-1064
▁ob	-1065
▁eng	-1066
▁mad	-1067
ertain	-1068
pid	-1069
▁cas	-1070
▁expl	-1071
▁death	-1072
▁hurt	-1073
▁hours	-1074
ott	-1075
▁nat	-1076
▁rob	-1077
▁resp	-1078
▁ready	-1079
▁expect	-1080
▁anybody	-1081
▁different	-1082
ru	-1083
▁pet	-1084
▁frank	-1085
▁serious	-1086
▁sometim	-1087
▁gets	-1088
▁cut	-1089
▁dan	-1090
als	-1091
ling	-1092
▁conf	-1093
ult	-1094
uss	-1095
more	-1096
ating	-1097
▁forg	-1098
▁country	-1099
oy	-1100
air	-1101
lin	-1102
▁win	-1103
▁book	-1104
▁door	-1105
▁reason	-1106
dd	-1107
▁either	-1108
▁making	-1109
▁je	-1110
▁hus	-1111
▁follow	-1112
▁wish	-1113
▁comes	-1114
▁free	-1115
▁asked	-1116
cc	-1117
▁z	-1118
▁town	-1119
▁inter	-1120
▁taking	-1121
ile	-1122
▁sy	-1123
▁inv	-1124
▁eight	-1125
ange	-1126
▁gen	-1127
▁ship	-1128
▁later	-1129
▁alright	-1130
▁suppose	-1131
ens	-1132
reet	-1133
▁bob	-1134
▁mill	-1135
▁res	-1136
▁spe	-1137
▁heart	-1138
▁hun	-1139
▁ret	-1140
▁bill	-1141
▁times	-1142
▁col	-1143
▁fil	-1144
▁inc	-1145
▁sort	-1146
vor	-1147
band	-1148
▁sex	-1149
▁send	-1150
▁side	-1151
ah	-1152
▁ru	-1153
ier	-1154
▁inf	-1155
▁anymore	-1156
ip	-1157
land	-1158
▁stupid	-1159
▁husband	-1160
▁full	-1161
▁kids	-1162
▁close	-1163
artment	-1164
▁against	-1165
ings	-1166
teen	-1167
▁light	-1168
▁import	-1169
▁record	-1170
ial	-1171
ross	-1172
▁pap	-1173
▁inst	-1174
▁truth	-1175
▁everyone	-1176
▁lou	-1177
ris	-1178
side	-1179
▁gre	-1180
▁women	-1181
▁couple	-1182
▁lau	-1183
▁lik	-1184
▁stra	-1185
ient	-1186
outh	-1187
▁mess	-1188
▁grand	-1189
▁office	-1190
▁hands	-1191
▁certain	-1192
▁def	-1193
▁waiting	-1194
eric	-1195
▁tea	-1196
▁easy	-1197
▁goes	-1198
▁chance	-1199
its	-1200
▁disc	-1201
▁buy	-1202
▁par	-1203
▁tou	-1204
▁answer	-1205
up	-1206
ne	-1207
▁eyes	-1208
▁sick	-1209
▁sign	-1210
▁sometimes	-1211
by	-1212
▁cor	-1213
ters	-1214
az	-1215
▁conc	-1216
▁honey	-1217
▁means	-1218
▁sweet	-1219
▁number	-1220
▁street	-1221
▁though	-1222
▁pen	-1223
▁fact	-1224
ied	-1225
olog	-1226
▁coll	-1227
▁lady	-1228
▁yours	-1229
▁alm	-1230
▁bra	-1231
▁hang	-1232
▁whit	-1233
▁power	-1234
▁train	-1235
▁daught	-1236
▁important	-1237
ards	-1238
ention	-1239
▁phone	-1240
▁vis	-1241
▁body	-1242
▁fifty	-1243
▁goddamn	-1244
▁running	-1245
te	-1246
oice	-1247
ount	-1248
▁beh	-1249
▁mus	-1250
umb	-1251
▁excuse	-1252
sy	-1253
cks	-1254
▁cr	-1255
▁dra	-1256
▁ray	-1257
▁inside	-1258
▁vi	-1259
ster	-1260
▁class	-1261
▁americ	-1262
so	-1263
▁es	-1264
▁sn	-1265
▁lie	-1266
▁pie	-1267
▁dear	-1268
▁mart	-1269
▁thirty	-1270
ald	-1271
eral	-1272
unch	-1273
▁lear	-1274
ual	-1275
arent	-1276
▁bank	-1277
▁ge	-1278
ames	-1279
▁sat	-1280
▁fall	-1281
ys	-1282
▁cal	-1283
▁dou	-1284
▁ste	-1285
▁behind	-1286
ph	-1287
▁fool	-1288
▁almost	-1289
▁ele	-1290
▁fore	-1291
▁shall	-1292
▁ah	-1293
shit	-1294
▁dog	-1295
▁reg	-1296
▁city	-1297
inc	-1298
▁din	-1299
ete	-1300
iam	-1301
vers	-1302
▁red	-1303
▁fell	-1304
▁pull	-1305
▁sing	-1306
▁tried	-1307
▁water	-1308
▁worth	-1309
▁living	-1310
ole	-1311
▁mer	-1312
▁pict	-1313
▁star	-1314
▁bullshit	-1315
▁fast	-1316
▁along	-1317
▁blood	-1318
▁terri	-1319
rought	-1320
▁months	-1321
▁himself	-1322
▁picture	-1323
ction	-1324
▁funny	-1325
ged	-1326
▁cri	-1327
▁dick	-1328
▁news	-1329
▁exper	-1330
ched	-1331
▁bag	-1332
▁hor	-1333
▁vict	-1334
▁drive	-1335
▁brought	-1336
ird	-1337
ween	-1338
▁ind	-1339
▁mid	-1340
▁alive	-1341
▁moment	-1342
▁between	-1343
ks	-1344
▁beat	-1345
▁wear	-1346
▁prot	-1347
▁rick	-1348
▁daddy	-1349
▁daughter	-1350
uc	-1351
tle	-1352
▁leg	-1353
▁army	-1354
sel	-1355
▁small	-1356
ton	-1357
▁king	-1358
▁wall	-1359
ax	-1360
cial	-1361
ense	-1362
haps	-1363
ured	-1364
▁york	-1365
▁seems	-1366
▁state	-1367
▁perhaps	-1368
▁promise	-1369
▁fel	-1370
▁sal	-1371
▁also	-1372
▁safe	-1373
▁white	-1374
ild	-1375
▁sub	-1376
▁food	-1377
▁test	-1378
io	-1379
che	-1380
lic	-1381
▁ow	-1382
▁cons	-1383
▁pain	-1384
▁scared	-1385
▁perfect	-1386
rence	-1387
▁girls	-1388
led	-1389
▁buck	-1390
▁capt	-1391
▁cool	-1392
▁bitch	-1393
ets	-1394
▁er	-1395
room	-1396
▁mag	-1397
▁tot	-1398
▁wind	-1399
▁asking	-1400
▁straight	-1401
app	-1402
mit	-1403
▁ball	-1404
▁happens	-1405
vice	-1406
▁sam	-1407
▁sent	-1408
▁sense	-1409
uce	-1410
▁died	-1411
▁seem	-1412
▁harry	-1413
▁human	-1414
▁glad	-1415
▁front	-1416
ject	-1417
ience	-1418
▁party	-1419
▁sounds	-1420
▁president	-1421
iv	-1422
ale	-1423
ane	-1424
▁dun	-1425
▁poor	-1426
ital	-1427
rold	-1428
▁mem	-1429
▁started	-1430
bb	-1431
king	-1432
▁clean	-1433
▁contro	-1434
ric	-1435
amin	-1436
ones	-1437
orge	-1438
▁ref	-1439
ished	-1440
▁dist	-1441
▁step	-1442
▁miles	-1443
▁seven	-1444
▁secret	-1445
▁million	-1446
▁shouldn	-1447
ates	-1448
▁abs	-1449
▁gent	-1450
▁offic	-1451
▁its	-1452
▁harold	-1453
▁art	-1454
▁hon	-1455
▁maj	-1456
▁line	-1457
▁leaving	-1458
▁complete	-1459
▁possible	-1460
ator	-1461
▁movie	-1462
▁outside	-1463
▁dark	-1464
▁less	-1465
▁ahead	-1466
▁looked	-1467
▁william	-1468
cent	-1469
▁dest	-1470
▁words	-1471
sh	-1472
ze	-1473
any	-1474
ten	-1475
▁ev	-1476
ular	-1477
▁cam	-1478
▁mary	-1479
▁tired	-1480
▁weren	-1481
▁report	-1482
oke	-1483
ote	-1484
ides	-1485
▁boss	-1486
▁prof	-1487
▁pleas	-1488
▁protect	-1489
men	-1490
ency	-1491
▁psy	-1492
▁george	-1493
▁children	-1494
ative	-1495
▁dire	-1496
▁clear	-1497
▁except	-1498
▁rather	-1499
ts	-1500
cked	-1501
▁ext	-1502
▁burn	-1503
▁build	-1504
▁figure	-1505
iet	-1506
▁fat	-1507
ility	-1508
▁boys	-1509
▁fair	-1510
▁hair	-1511
▁near	-1512
▁feeling	-1513
ider	-1514
ward	-1515
pping	-1516
▁lose	-1517
▁till	-1518
▁begin	-1519
ape	-1520
ush	-1521
fort	-1522
▁del	-1523
▁fre	-1524
▁west	-1525
▁hotel	-1526
gest	-1527
▁ner	-1528
▁vir	-1529
▁blow	-1530
▁hild	-1531
▁imag	-1532
▁sell	-1533
▁dinner	-1534
▁parent	-1535
min	-1536
▁du	-1537
▁ord	-1538
▁disapp	-1539
cha	-1540
ately	-1541
▁drop	-1542
▁hildy	-1543
▁short	-1544
▁touch	-1545
▁weeks	-1546
▁kidding	-1547
rick	-1548
▁key	-1549
▁priv	-1550
▁spend	-1551
▁gentle	-1552
▁explain	-1553
cle	-1554
▁cent	-1555
▁clot	-1556
arth	-1557
itch	-1558
▁jim	-1559
▁squ	-1560
▁lead	-1561
▁nine	-1562
▁favor	-1563
▁interested	-1564
▁bes	-1565
▁rid	-1566
▁playing	-1567
gry	-1568
▁tre	-1569
▁land	-1570
▁earth	-1571
▁captain	-1572
▁somewhere	-1573
ls	-1574
dle	-1575
hin	-1576
ault	-1577
▁dav	-1578
▁med	-1579
▁pop	-1580
aw	-1581
▁dress	-1582
▁throw	-1583
▁ty	-1584
▁dance	-1585
▁thinks	-1586
ony	-1587
▁cry	-1588
▁neg	-1589
▁mark	-1590
▁strange	-1591
ern	-1592
omb	-1593
▁kiss	-1594
ession	-1595
▁lives	-1596
▁write	-1597
of	-1598
ike	-1599
▁bat	-1600
▁rad	-1601
▁able	-1602
▁cost	-1603
▁peter	-1604
▁quick	-1605
die	-1606
ines	-1607
ring	-1608
▁fix	-1609
▁sun	-1610
▁drug	-1611
▁grow	-1612
▁sold	-1613
ically	-1614
▁clock	-1615
▁marry	-1616
▁company	-1617
▁wonderful	-1618
osp	-1619
ited	-1620
▁pos	-1621
▁ride	-1622
▁save	-1623
ime	-1624
▁los	-1625
▁drunk	-1626
▁mouth	-1627
▁works	-1628
▁parents	-1629
gan	-1630
lly	-1631
aine	-1632
▁evil	-1633
▁surp	-1634
▁chief	-1635
▁order	-1636
▁smart	-1637
▁inform	-1638
▁clothes	-1639
▁control	-1640
▁forgive	-1641
▁apartment	-1642
bar	-1643
ram	-1644
▁gi	-1645
▁low	-1646
▁bucks	-1647
▁needs	-1648
▁taken	-1649
▁command	-1650
bo	-1651
hh	-1652
ced	-1653
dden	-1654
▁add	-1655
▁lar	-1656
▁shi	-1657
▁felt	-1658
▁quit	-1659
▁known	-1660
▁lucky	-1661
▁dem	-1662
▁invol	-1663
▁loved	-1664
▁piece	-1665
▁worse	-1666
▁certainly	-1667
co	-1668
▁cond	-1669
▁susp	-1670
vest	-1671
▁sou	-1672
▁date	-1673
▁jeff	-1674
▁creat	-1675
▁david	-1676
▁simple	-1677
lo	-1678
chi	-1679
vis	-1680
▁roy	-1681
▁takes	-1682
▁sister	-1683
▁worked	-1684
▁respect	-1685
uts	-1686
vin	-1687
▁bur	-1688
iting	-1689
▁slow	-1690
▁catch	-1691
▁stick	-1692
▁fifteen	-1693
▁jun	-1694
ances	-1695
▁paul	-1696
▁cross	-1697
▁music	-1698
▁ought	-1699
▁besides	-1700
ces	-1701
▁pa	-1702
amed	-1703
▁bas	-1704
▁dar	-1705
▁blue	-1706
▁mist	-1707
▁past	-1708
ics	-1709
idence	-1710
▁early	-1711
▁others	-1712
▁terrible	-1713
mp	-1714
stem	-1715
▁max	-1716
▁van	-1717
onest	-1718
ublic	-1719
▁oper	-1720
▁system	-1721
▁unless	-1722
▁general	-1723
▁anywhere	-1724
mb	-1725
ler	-1726
▁hom	-1727
▁jud	-1728
▁top	-1729
▁wel	-1730
▁cann	-1731
▁jake	-1732
▁super	-1733
▁become	-1734
▁murder	-1735
erg	-1736
igg	-1737
ities	-1738
▁learn	-1739
▁press	-1740
▁choice	-1741
▁danger	-1742
▁special	-1743
gn	-1744
uff	-1745
mmer	-1746
▁gar	-1747
vious	-1748
▁sand	-1749
▁shar	-1750
ission	-1751
▁plane	-1752
▁screw	-1753
ok	-1754
ming	-1755
▁louis	-1756
▁honest	-1757
▁questions	-1758
ash	-1759
rey	-1760
airs	-1761
▁pea	-1762
▁fucked	-1763
▁middle	-1764
▁totally	-1765
ues	-1766
uri	-1767
aste	-1768
▁ble	-1769
▁lad	-1770
ories	-1771
▁cold	-1772
▁none	-1773
▁tick	-1774
ective	-1775
▁return	-1776
▁esc	-1777
▁suit	-1778
uation	-1779
▁carry	-1780
▁eddie	-1781
ama	-1782
joy	-1783
▁ca	-1784
▁val	-1785
fic	-1786
come	-1787
oose	-1788
ester	-1789
▁feet	-1790
▁park	-1791
selves	-1792
▁offer	-1793
▁weird	-1794
▁moving	-1795
ley	-1796
▁fut	-1797
▁ris	-1798
▁wal	-1799
▁bast	-1800
▁hosp	-1801
▁absol	-1802
▁swear	-1803
▁attack	-1804
ma	-1805
mer	-1806
ific	-1807
▁fly	-1808
▁fort	-1809
itting	-1810
▁broke	-1811
▁meant	-1812
▁invest	-1813
▁personal	-1814
ants	-1815
▁flo	-1816
swald	-1817
▁coff	-1818
▁paper	-1819
▁future	-1820
▁yester	-1821
▁yesterday	-1822
ield	-1823
ored	-1824
used	-1825
▁cong	-1826
▁fear	-1827
▁join	-1828
▁pack	-1829
▁trip	-1830
▁baron	-1831
▁quiet	-1832
▁entire	-1833
xic	-1834
ered	-1835
ized	-1836
▁cre	-1837
▁mis	-1838
aster	-1839
night	-1840
▁cops	-1841
▁piss	-1842
▁post	-1843
▁defin	-1844
▁fault	-1845
▁oswald	-1846
▁meeting	-1847
▁obvious	-1848
▁happening	-1849
▁sug	-1850
itive	-1851
▁assh	-1852
▁tele	-1853
▁court	-1854
▁outta	-1855
▁bother	-1856
▁cannot	-1857
▁calling	-1858
▁killing	-1859
▁absolute	-1860
▁hospital	-1861
cri	-1862
▁sto	-1863
▁bath	-1864
▁mach	-1865
▁treat	-1866
▁elaine	-1867
▁finish	-1868
igh	-1869
cher	-1870
ided	-1871
▁ups	-1872
▁benj	-1873
▁gold	-1874
▁stri	-1875
▁honor	-1876
▁likes	-1877
▁public	-1878
ume	-1879
▁arm	-1880
▁bomb	-1881
▁lord	-1882
▁mention	-1883
▁difference	-1884
▁fe	-1885
▁aff	-1886
▁lay	-1887
▁mod	-1888
▁busy	-1889
▁laugh	-1890
▁lying	-1891
▁victor	-1892
▁involved	-1893
▁detective	-1894
bt	-1895
ept	-1896
ots	-1897
lish	-1898
▁ger	-1899
▁smell	-1900
▁benjamin	-1901
▁interesting	-1902
ston	-1903
▁sad	-1904
▁bust	-1905
▁kinda	-1906
▁loc	-1907
▁ran	-1908
▁crew	-1909
▁deli	-1910
▁appre	-1911
▁liked	-1912
▁imagine	-1913
dge	-1914
iff	-1915
ina	-1916
lie	-1917
▁cur	-1918
▁pur	-1919
▁deep	-1920
▁fred	-1921
▁jail	-1922
▁rock	-1923
▁marri	-1924
▁peace	-1925
▁trans	-1926
▁visit	-1927
▁careful	-1928
▁american	-1929
▁situation	-1930
▁completely	-1931
ches	-1932
▁age	-1933
▁sol	-1934
▁nick	-1935
▁road	-1936
▁sake	-1937
▁event	-1938
▁girlf	-1939
▁giving	-1940
▁finally	-1941
▁welcome	-1942
▁consider	-1943
▁girlfriend	-1944
▁information	-1945
ior	-1946
ipp	-1947
ents	-1948
▁arr	-1949
▁fing	-1950
▁hasn	-1951
▁hurry	-1952
▁handle	-1953
▁threat	-1954
▁service	-1955
▁accident	-1956
▁eh	-1957
▁rul	-1958
▁hist	-1959
▁ones	-1960
▁pool	-1961
▁bruce	-1962
hen	-1963
nie	-1964
ison	-1965
▁bor	-1966
▁cow	-1967
▁mot	-1968
▁tal	-1969
ciate	-1970
▁kick	-1971
▁named	-1972
▁sudden	-1973
▁virgin	-1974
▁definite	-1975
▁watching	-1976
oint	-1977
▁cab	-1978
▁cir	-1979
▁coffee	-1980
▁destro	-1981
▁sevent	-1982
▁respons	-1983
ead	-1984
ene	-1985
▁pal	-1986
▁tur	-1987
dered	-1988
ments	-1989
▁card	-1990
▁film	-1991
▁marty	-1992
▁teach	-1993
▁window	-1994
ray	-1995
ised	-1996
vern	-1997
▁den	-1998
▁occ	-1999
▁doin	-2000
▁russ	-2001
▁breat	-2002
▁chang	-2003
▁enjoy	-2004
▁pract	-2005
▁walter	-2006
ages	-2007
ians	-2008
▁prod	-2009
▁prog	-2010
▁wake	-2011
▁psych	-2012
▁travel	-2013
▁turned	-2014
rap	-2015
ball	-2016
ists	-2017
▁box	-2018
▁base	-2019
▁crap	-2020
▁kept	-2021
▁lock	-2022
▁forty	-2023
▁mexic	-2024
▁mister	-2025
▁seeing	-2026
▁summer	-2027
▁percent	-2028
▁private	-2029
ium	-2030
▁ce	-2031
aude	-2032
irth	-2033
▁tor	-2034
▁wit	-2035
ering	-2036
▁goin	-2037
▁yell	-2038
▁given	-2039
▁knock	-2040
▁relax	-2041
▁truck	-2042
▁possib	-2043
▁strong	-2044
▁english	-2045
▁relations	-2046
▁absolutely	-2047
ery	-2048
oid	-2049
rat	-2050
arch	-2051
orth	-2052
ully	-2053
vous	-2054
zart	-2055
▁dam	-2056
▁hmm	-2057
▁ice	-2058
▁bott	-2059
▁cast	-2060
▁guns	-2061
▁paid	-2062
▁store	-2063
▁upset	-2064
▁caught	-2065
▁mozart	-2066
▁figured	-2067
▁missing	-2068
▁finished	-2069
bor	-2070
fer	-2071
aven	-2072
▁cig	-2073
▁prep	-2074
▁prop	-2075
▁birth	-2076
▁lunch	-2077
▁asshole	-2078
▁pleasure	-2079
ilt	-2080
ove	-2081
▁joe	-2082
▁owe	-2083
▁uni	-2084
uring	-2085
▁anim	-2086
▁bout	-2087
▁viol	-2088
▁glass	-2089
▁robin	-2090
▁third	-2091
▁belong	-2092
▁hardly	-2093
▁bastard	-2094
ili	-2095
▁et	-2096
ners	-2097
▁sea	-2098
▁ted	-2099
▁cash	-2100
▁jump	-2101
▁team	-2102
▁brain	-2103
▁cover	-2104
▁impress	-2105
▁jeffrey	-2106
ety	-2107
ius	-2108
kes	-2109
res	-2110
cess	-2111
▁tem	-2112
▁cook	-2113
▁dign	-2114
▁rich	-2115
▁ways	-2116
▁freak	-2117
▁major	-2118
▁bought	-2119
▁heaven	-2120
▁instead	-2121
▁department	-2122
cell	-2123
▁fed	-2124
▁jam	-2125
▁fill	-2126
▁lawy	-2127
▁main	-2128
▁devil	-2129
▁round	-2130
▁german	-2131
▁stopped	-2132
hood	-2133
noon	-2134
▁born	-2135
▁heal	-2136
▁tape	-2137
▁chick	-2138
▁dunno	-2139
▁rules	-2140
▁direct	-2141
▁fellow	-2142
▁america	-2143
▁officer	-2144
▁building	-2145
▁investig	-2146
▁williams	-2147
▁afternoon	-2148
▁definitely	-2149
la	-2150
ob	-2151
how	-2152
nes	-2153
olf	-2154
ette	-2155
▁ill	-2156
▁phi	-2157
▁pil	-2158
▁sar	-2159
fully	-2160
▁norm	-2161
▁sens	-2162
▁doubt	-2163
▁hungry	-2164
▁single	-2165
▁evening	-2166
▁seconds	-2167
▁station	-2168
▁marriage	-2169
ude	-2170
ury	-2171
▁tv	-2172
ures	-2173
view	-2174
▁beg	-2175
▁las	-2176
▁mel	-2177
stairs	-2178
▁acting	-2179
▁destroy	-2180
▁nervous	-2181
gu	-2182
bed	-2183
ddy	-2184
eth	-2185
ode	-2186
une	-2187
▁gri	-2188
▁spl	-2189
▁aust	-2190
▁boat	-2191
▁fish	-2192
▁stud	-2193
▁appro	-2194
▁lived	-2195
▁arrest	-2196
▁charge	-2197
▁comput	-2198
▁picked	-2199
▁talked	-2200
▁account	-2201
▁collect	-2202
▁discuss	-2203
▁history	-2204
▁records	-2205
cus	-2206
▁av	-2207
▁um	-2208
iment	-2209
rench	-2210
ulous	-2211
▁seat	-2212
▁type	-2213
▁weap	-2214
▁field	-2215
▁comfort	-2216
▁realize	-2217
▁problems	-2218
ney	-2219
ron	-2220
zen	-2221
nect	-2222
▁chur	-2223
▁cute	-2224
▁east	-2225
▁self	-2226
ration	-2227
▁table	-2228
▁voice	-2229
▁forgot	-2230
▁govern	-2231
▁machine	-2232
▁sitting	-2233
▁dangerous	-2234
▁relationship	-2235
avy	-2236
gue	-2237
aces	-2238
vies	-2239
▁dor	-2240
▁fem	-2241
▁mas	-2242
▁dave	-2243
▁dumb	-2244
▁foot	-2245
▁hook	-2246
▁sill	-2247
▁green	-2248
▁goodby	-2249
▁movies	-2250
▁seemed	-2251
▁forever	-2252
▁patrick	-2253
▁experience	-2254
to	-2255
ism	-2256
▁pin	-2257
▁pard	-2258
▁agree	-2259
▁deser	-2260
▁divor	-2261
▁natur	-2262
▁neigh	-2263
▁reach	-2264
▁apolog	-2265
▁killer	-2266
▁appreciate	-2267
cy	-2268
▁da	-2269
esty	-2270
▁eye	-2271
▁mic	-2272
▁brown	-2273
▁ground	-2274
▁proper	-2275
▁charlie	-2276
▁marylin	-2277
▁mistake	-2278
▁worried	-2279
▁wondering	-2280
urs	-2281
bley	-2282
ined	-2283
▁aut	-2284
▁idi	-2285
▁mal	-2286
▁san	-2287
▁wow	-2288
ified	-2289
▁amaz	-2290
▁joke	-2291
▁ring	-2292
▁soul	-2293
▁allow	-2294
▁twice	-2295
ational	-2296
▁french	-2297
▁imposs	-2298
▁goodbye	-2299
abl	-2300
oon	-2301
▁pu	-2302
▁opp	-2303
▁rom	-2304
ution	-2305
▁gord	-2306
▁brian	-2307
▁calls	-2308
▁price	-2309
▁tough	-2310
ination	-2311
▁across	-2312
▁dreams	-2313
▁longer	-2314
▁mission	-2315
▁robinson	-2316
▁gentlemen	-2317
ogn	-2318
tin	-2319
uct	-2320
rate	-2321
▁pig	-2322
▁bond	-2323
▁camp	-2324
▁cust	-2325
▁hall	-2326
▁peel	-2327
▁risk	-2328
▁suck	-2329
▁wood	-2330
▁uncle	-2331
▁church	-2332
▁lawyer	-2333
▁impossible	-2334
oc	-2335
port	-2336
▁emp	-2337
▁fol	-2338
▁fro	-2339
▁brit	-2340
▁danc	-2341
▁draw	-2342
▁mike	-2343
▁song	-2344
▁surv	-2345
▁board	-2346
▁cheap	-2347
▁exist	-2348
▁level	-2349
▁share	-2350
▁silly	-2351
▁dignan	-2352
▁address	-2353
▁suggest	-2354
unt	-2355
▁ci	-2356
bers	-2357
▁adm	-2358
▁bre	-2359
▁eas	-2360
▁sil	-2361
▁grad	-2362
▁phil	-2363
▁civil	-2364
▁floor	-2365
▁judge	-2366
▁accept	-2367
▁commun	-2368
▁insane	-2369
▁prison	-2370
▁recogn	-2371
▁wearing	-2372
▁commander	-2373
ege	-2374
▁dat	-2375
▁ven	-2376
▁corn	-2377
▁hero	-2378
▁lang	-2379
▁phys	-2380
▁crime	-2381
▁extra	-2382
▁radio	-2383
▁double	-2384
▁mexico	-2385
▁nothin	-2386
▁partic	-2387
▁neither	-2388
▁surpris	-2389
▁weather	-2390
▁brothers	-2391
▁fighting	-2392
sa	-2393
anz	-2394
ken	-2395
rie	-2396
fuck	-2397
ries	-2398
▁dir	-2399
▁rat	-2400
▁tow	-2401
cious	-2402
▁calm	-2403
▁club	-2404
▁cred	-2405
▁hide	-2406
▁hill	-2407
▁holy	-2408
▁inde	-2409
vision	-2410
▁moved	-2411
▁space	-2412
▁spent	-2413
▁track	-2414
▁action	-2415
▁contin	-2416
▁excell	-2417
▁normal	-2418
▁pardon	-2419
▁connect	-2420
▁darling	-2421
▁decided	-2422
▁majesty	-2423
▁staying	-2424
▁suspect	-2425
ache	-2426
▁ber	-2427
▁hol	-2428
▁mob	-2429
▁enem	-2430
▁south	-2431
▁steal	-2432
▁college	-2433
▁driving	-2434
ik	-2435
yle	-2436
iled	-2437
tact	-2438
▁cla	-2439
▁egg	-2440
▁gam	-2441
▁mir	-2442
ature	-2443
▁clos	-2444
▁lots	-2445
▁mama	-2446
▁nuts	-2447
▁corre	-2448
▁loves	-2449
▁mommy	-2450
▁north	-2451
▁client	-2452
▁changed	-2453
▁contact	-2454
▁frances	-2455
▁present	-2456
zz	-2457
key	-2458
lex	-2459
por	-2460
tic	-2461
chen	-2462
elve	-2463
▁gif	-2464
▁cole	-2465
▁conv	-2466
▁neck	-2467
▁rece	-2468
▁spec	-2469
▁vall	-2470
▁during	-2471
▁island	-2472
▁plenty	-2473
▁twelve	-2474
▁listening	-2475
sie	-2476
▁ug	-2477
▁vac	-2478
icide	-2479
▁form	-2480
▁jour	-2481
▁matt	-2482
▁phot	-2483
▁tech	-2484
▁homer	-2485
▁horse	-2486
▁idiot	-2487
▁whose	-2488
▁austin	-2489
▁martin	-2490
▁putting	-2491
▁computer	-2492
▁beginning	-2493
amp	-2494
atic	-2495
rise	-2496
▁adv	-2497
▁fit	-2498
▁mac	-2499
place	-2500
▁band	-2501
▁coun	-2502
▁requ	-2503
▁tear	-2504
▁afric	-2505
▁block	-2506
▁prove	-2507
▁ridic	-2508
▁study	-2509
▁using	-2510
▁worst	-2511
▁asleep	-2512
▁claude	-2513
▁diffic	-2514
▁gordon	-2515
▁england	-2516
▁partner	-2517
▁somehow	-2518
▁witness	-2519
gs	-2520
aum	-2521
nel	-2522
▁ang	-2523
▁bye	-2524
▁bert	-2525
▁circ	-2526
▁curi	-2527
▁alice	-2528
▁apart	-2529
▁pound	-2530
▁sixty	-2531
▁finger	-2532
▁intell	-2533
▁nathan	-2534
▁talent	-2535
▁message	-2536
bbie	-2537
▁dig	-2538
▁fur	-2539
▁rub	-2540
verse	-2541
▁area	-2542
▁crow	-2543
▁herr	-2544
▁horn	-2545
▁load	-2546
▁moon	-2547
▁pray	-2548
▁rule	-2549
cially	-2550
▁james	-2551
▁manag	-2552
▁saved	-2553
▁stuck	-2554
▁concer	-2555
▁memory	-2556
▁mostly	-2557
▁needed	-2558
▁ordell	-2559
▁neighbor	-2560
▁position	-2561
▁somethin	-2562
▁standing	-2563
ky	-2564
acy	-2565
era	-2566
ils	-2567
ino	-2568
iny	-2569
ppy	-2570
rod	-2571
ted	-2572
uit	-2573
▁ly	-2574
medi	-2575
▁fas	-2576
▁hen	-2577
▁wha	-2578
▁beer	-2579
▁boyf	-2580
▁fant	-2581
▁hole	-2582
▁quar	-2583
▁roll	-2584
▁spir	-2585
▁const	-2586
▁tells	-2587
▁debbie	-2588
▁gotten	-2589
▁immedi	-2590
▁nature	-2591
▁shower	-2592
▁british	-2593
▁whoever	-2594
▁training	-2595
▁boyfriend	-2596
▁hy	-2597
▁ry	-2598
aret	-2599
ends	-2600
ened	-2601
gged	-2602
iced	-2603
ices	-2604
yond	-2605
▁coo	-2606
▁equ	-2607
▁jer	-2608
▁ori	-2609
▁por	-2610
▁tap	-2611
▁wed	-2612
ended	-2613
▁drag	-2614
▁dude	-2615
urance	-2616
▁blame	-2617
▁bunch	-2618
▁decis	-2619
▁drugs	-2620
▁dying	-2621
▁faith	-2622
▁guard	-2623
▁scare	-2624
▁beyond	-2625
▁attract	-2626
▁bathroom	-2627
▁attention	-2628
▁interview	-2629
▁commission	-2630
▁ridiculous	-2631
ov	-2632
ese	-2633
▁gh	-2634
anca	-2635
char	-2636
tern	-2637
▁dry	-2638
▁hal	-2639
▁iss	-2640
▁rex	-2641
▁earl	-2642
▁inno	-2643
▁wolf	-2644
▁agent	-2645
▁gives	-2646
ablanca	-2647
▁health	-2648
▁amazing	-2649
▁stories	-2650
▁birthday	-2651
▁surprised	-2652
▁casablanca	-2653
▁particular	-2654
ope	-2655
▁ell	-2656
▁fac	-2657
▁ken	-2658
▁lee	-2659
▁sle	-2660
eding	-2661
▁ange	-2662
▁page	-2663
▁prou	-2664
▁skin	-2665
▁twom	-2666
▁admit	-2667
▁credit	-2668
▁missed	-2669
▁square	-2670
▁starts	-2671
▁talkin	-2672
▁arrange	-2673
▁patient	-2674
▁seventy	-2675
▁support	-2676
▁willing	-2677
▁twombley	-2678
▁profession	-2679
▁ef	-2680
ille	-2681
lein	-2682
onel	-2683
▁dut	-2684
▁tru	-2685
▁perf	-2686
▁swim	-2687
▁elect	-2688
▁emerg	-2689
▁fired	-2690
▁jesse	-2691
▁loose	-2692
▁match	-2693
▁often	-2694
▁flight	-2695
▁letter	-2696
▁powers	-2697
▁dickson	-2698
▁russian	-2699
▁usually	-2700
▁pictures	-2701
▁promised	-2702
▁surprise	-2703
▁concerned	-2704
▁obviously	-2705
bs	-2706
va	-2707
phi	-2708
▁fu	-2709
ives	-2710
wise	-2711
▁ann	-2712
▁aud	-2713
▁nor	-2714
▁odd	-2715
▁opt	-2716
▁cell	-2717
▁dool	-2718
▁evan	-2719
▁pete	-2720
▁weir	-2721
aumont	-2722
▁awful	-2723
▁built	-2724
▁color	-2725
▁force	-2726
▁proud	-2727
▁broken	-2728
▁effect	-2729
▁holding	-2730
▁beaumont	-2731
▁drinking	-2732
▁seriously	-2733
▁government	-2734
eg	-2735
ply	-2736
▁ba	-2737
bert	-2738
▁fle	-2739
▁fri	-2740
▁gim	-2741
▁nah	-2742
▁nin	-2743
▁pot	-2744
▁unc	-2745
ently	-2746
ysing	-2747
▁adam	-2748
▁cous	-2749
▁dana	-2750
▁nigg	-2751
▁beach	-2752
▁jason	-2753
▁jones	-2754
▁langu	-2755
▁organ	-2756
▁plans	-2757
▁pregn	-2758
▁princ	-2759
▁shark	-2760
▁smith	-2761
▁taste	-2762
▁famous	-2763
▁locked	-2764
▁pissed	-2765
▁taught	-2766
▁cigaret	-2767
▁hanging	-2768
▁program	-2769
▁innocent	-2770
▁preysing	-2771
▁suddenly	-2772
▁difficult	-2773
▁insurance	-2774
▁motherfuck	-2775
ym	-2776
bur	-2777
ife	-2778
sey	-2779
iter	-2780
itor	-2781
▁deg	-2782
▁eve	-2783
▁fan	-2784
▁gee	-2785
▁smo	-2786
astic	-2787
heart	-2788
▁alex	-2789
▁bird	-2790
▁clim	-2791
▁espe	-2792
▁farm	-2793
▁shan	-2794
▁angry	-2795
▁games	-2796
▁ghost	-2797
▁jimmy	-2798
▁negro	-2799
▁shows	-2800
▁tight	-2801
▁creasy	-2802
▁dunbar	-2803
▁master	-2804
▁orders	-2805
▁papers	-2806
▁remind	-2807
▁especially	-2808
▁immediately	-2809
ges	-2810
iew	-2811
osh	-2812
ror	-2813
▁cy	-2814
▁ta	-2815
hile	-2816
▁cro	-2817
▁sky	-2818
▁vol	-2819
chard	-2820
fered	-2821
▁agre	-2822
▁dump	-2823
▁file	-2824
▁lone	-2825
▁shop	-2826
▁tree	-2827
▁view	-2828
▁books	-2829
▁gimme	-2830
▁magic	-2831
▁names	-2832
▁custom	-2833
▁scream	-2834
▁ticket	-2835
▁curious	-2836
▁forward	-2837
▁stephen	-2838
▁survive	-2839
▁sleeping	-2840
▁doolittle	-2841
bi	-2842
cut	-2843
ham	-2844
nal	-2845
sty	-2846
essa	-2847
othy	-2848
roup	-2849
▁doc	-2850
▁jan	-2851
▁kit	-2852
▁lab	-2853
▁mut	-2854
itude	-2855
uthor	-2856
ville	-2857
▁clay	-2858
▁ital	-2859
▁josh	-2860
▁mant	-2861
▁pill	-2862
▁plus	-2863
▁push	-2864
▁rose	-2865
▁soft	-2866
▁feels	-2867
▁paris	-2868
▁smoke	-2869
▁techn	-2870
▁wrote	-2871
▁bridge	-2872
▁escape	-2873
▁lovely	-2874
▁checked	-2875
▁correct	-2876
▁letters	-2877
▁whether	-2878
▁believed	-2879
▁possibly	-2880
▁gentleman	-2881
▁otherwise	-2882
cl	-2883
ya	-2884
ires	-2885
reme	-2886
▁bod	-2887
▁tar	-2888
▁und	-2889
vered	-2890
▁arri	-2891
▁flow	-2892
▁magn	-2893
▁reed	-2894
▁rent	-2895
ending	-2896
▁franc	-2897
▁gener	-2898
▁mount	-2899
▁appear	-2900
▁design	-2901
▁simply	-2902
▁valley	-2903
▁victim	-2904
▁convers	-2905
▁dorothy	-2906
▁teacher	-2907
▁vanessa	-2908
▁writing	-2909
▁goodnight	-2910
▁themselves	-2911
go	-2912
ka	-2913
ify	-2914
▁lu	-2915
cket	-2916
▁nar	-2917
board	-2918
rison	-2919
▁keys	-2920
▁opin	-2921
▁port	-2922
▁repe	-2923
▁spee	-2924
▁ugly	-2925
▁wild	-2926
▁blind	-2927
▁empty	-2928
▁freed	-2929
▁ricky	-2930
▁sales	-2931
▁sarah	-2932
▁scene	-2933
▁sword	-2934
▁tommy	-2935
▁trick	-2936
osition	-2937
▁author	-2938
▁closed	-2939
▁lonely	-2940
▁origin	-2941
▁psychi	-2942
▁herself	-2943
▁quickly	-2944
▁subject	-2945
▁congress	-2946
▁condition	-2947
br	-2948
cul	-2949
lor	-2950
ugg	-2951
ails	-2952
barr	-2953
ping	-2954
raph	-2955
ship	-2956
uten	-2957
work	-2958
▁cru	-2959
▁cub	-2960
▁naw	-2961
▁obs	-2962
gging	-2963
▁gang	-2964
▁harm	-2965
▁mass	-2966
▁note	-2967
▁rome	-2968
▁succ	-2969
▁unif	-2970
▁polit	-2971
barrass	-2972
▁dollar	-2973
▁goddam	-2974
▁places	-2975
▁poison	-2976
▁pulled	-2977
▁repres	-2978
▁surely	-2979
▁walked	-2980
▁chicken	-2981
▁colonel	-2982
▁lieuten	-2983
▁reading	-2984
▁favorite	-2985
▁intellig	-2986
▁positive	-2987
▁embarrass	-2988
▁everywhere	-2989
▁personally	-2990
ti	-2991
gth	-2992
oun	-2993
que	-2994
▁ign	-2995
▁lic	-2996
▁oce	-2997
eared	-2998
iliar	-2999
urday	-3000
▁beha	-3001
▁bell	-3002
▁desk	-3003
▁pump	-3004
▁vide	-3005
▁warm	-3006
▁buddy	-3007
▁horri	-3008
▁keeps	-3009
▁older	-3010
▁pilot	-3011
▁waste	-3012
▁wheel	-3013
▁assist	-3014
▁battle	-3015
▁damned	-3016
▁eating	-3017
▁ladies	-3018
▁losing	-3019
▁played	-3020
▁spirit	-3021
▁committ	-3022
▁deliver	-3023
▁richard	-3024
▁saturday	-3025
▁responsible	-3026
ye	-3027
aff	-3028
isf	-3029
zlo	-3030
eter	-3031
ruct	-3032
▁amb	-3033
▁blew	-3034
▁bour	-3035
▁fats	-3036
▁nose	-3037
▁perm	-3038
▁prin	-3039
▁rain	-3040
▁rout	-3041
▁shhh	-3042
▁suff	-3043
▁milit	-3044
▁breakf	-3045
▁corpor	-3046
▁crimin	-3047
▁expens	-3048
▁itself	-3049
▁search	-3050
▁within	-3051
▁nowhere	-3052
▁project	-3053
▁suicide	-3054
▁washing	-3055
▁language	-3056
▁upstairs	-3057
▁disappear	-3058
ari	-3059
ona	-3060
rer	-3061
ains	-3062
aked	-3063
akes	-3064
nold	-3065
oned	-3066
▁cad	-3067
▁ide	-3068
▁jap	-3069
▁lam	-3070
▁lem	-3071
▁map	-3072
atest	-3073
inary	-3074
▁cock	-3075
▁hadn	-3076
▁onto	-3077
▁purp	-3078
▁rail	-3079
▁runs	-3080
▁shaw	-3081
▁henry	-3082
▁rough	-3083
▁stole	-3084
▁teeth	-3085
▁decide	-3086
▁female	-3087
▁hiding	-3088
▁introd	-3089
▁passed	-3090
▁satisf	-3091
▁sooner	-3092
▁bedroom	-3093
▁charact	-3094
▁helping	-3095
▁meaning	-3096
▁opinion	-3097
▁director	-3098
▁evidence	-3099
▁greatest	-3100
▁disappoint	-3101
▁lieutenant	-3102
▁television	-3103
ped	-3104
ral	-3105
ploy	-3106
spap	-3107
▁exe	-3108
▁yep	-3109
ening	-3110
essed	-3111
▁flat	-3112
▁gary	-3113
▁pink	-3114
▁porn	-3115
▁prec	-3116
▁pure	-3117
▁soci	-3118
▁thom	-3119
▁trap	-3120
▁upon	-3121
fortun	-3122
▁activ	-3123
▁barry	-3124
▁claim	-3125
▁grace	-3126
▁heavy	-3127
▁lines	-3128
▁local	-3129
▁ocean	-3130
▁pants	-3131
▁river	-3132
▁truly	-3133
ference	-3134
▁afford	-3135
▁animal	-3136
▁beauty	-3137
▁laszlo	-3138
▁justice	-3139
▁keeping	-3140
▁learned	-3141
▁newspap	-3142
▁familiar	-3143
▁princess	-3144
▁unfortun	-3145
▁breakfast	-3146
▁emergency	-3147
▁recognize	-3148
▁ju	-3149
▁est	-3150
▁kay	-3151
ators	-3152
iling	-3153
ipper	-3154
ology	-3155
ringe	-3156
using	-3157
wards	-3158
▁anth	-3159
▁chem	-3160
▁craw	-3161
▁dise	-3162
▁gift	-3163
▁hust	-3164
▁shir	-3165
▁whom	-3166
▁wise	-3167
ishing	-3168
▁champ	-3169
▁drove	-3170
▁emper	-3171
▁plays	-3172
▁serge	-3173
▁shoes	-3174
▁wound	-3175
▁africa	-3176
▁marcus	-3177
▁knowing	-3178
▁success	-3179
▁creature	-3180
▁expected	-3181
▁garrison	-3182
▁washington	-3183
lt	-3184
ops	-3185
tes	-3186
▁ms	-3187
line	-3188
read	-3189
sing	-3190
time	-3191
▁hig	-3192
erson	-3193
light	-3194
ument	-3195
▁arms	-3196
▁duty	-3197
▁ganz	-3198
▁host	-3199
▁spot	-3200
▁tong	-3201
▁trad	-3202
▁dirty	-3203
▁grade	-3204
▁large	-3205
▁raise	-3206
▁bodies	-3207
▁castle	-3208
▁howard	-3209
▁indeed	-3210
▁stones	-3211
▁willie	-3212
▁anthony	-3213
▁excited	-3214
▁kitchen	-3215
▁merrick	-3216
▁noticed	-3217
▁watched	-3218
▁complain	-3219
▁starting	-3220
▁apologize	-3221
▁ourselves	-3222
▁comfortable	-3223
▁conversation	-3224
ki	-3225
vy	-3226
gri	-3227
icy	-3228
mas	-3229
uro	-3230
nedy	-3231
▁ban	-3232
▁fbi	-3233
▁mix	-3234
▁non	-3235
▁pan	-3236
▁pun	-3237
▁tax	-3238
▁thr	-3239
▁vig	-3240
iforn	-3241
otion	-3242
otten	-3243
▁coat	-3244
▁data	-3245
▁feed	-3246
▁lila	-3247
▁mood	-3248
▁prov	-3249
▁size	-3250
▁stom	-3251
perate	-3252
▁enemy	-3253
▁folks	-3254
▁guest	-3255
▁model	-3256
▁parts	-3257
▁sight	-3258
▁trade	-3259
ifornia	-3260
▁breath	-3261
▁common	-3262
▁fright	-3263
▁kringe	-3264
▁mantan	-3265
▁notice	-3266
▁speech	-3267
▁airport	-3268
▁biggest	-3269
▁concent	-3270
▁dancing	-3271
▁further	-3272
▁kennedy	-3273
▁murdered	-3274
▁shooting	-3275
▁represent	-3276
▁california	-3277
▁kringelein	-3278
omm	-3279
rog	-3280
rage	-3281
▁aye	-3282
▁cho	-3283
▁due	-3284
▁fer	-3285
▁nic	-3286
▁tis	-3287
▁tit	-3288
▁tun	-3289
asons	-3290
ipped	-3291
oming	-3292
▁bear	-3293
▁incl	-3294
▁mort	-3295
▁pair	-3296
▁scar	-3297
▁sour	-3298
▁vien	-3299
ograph	-3300
▁awake	-3301
▁files	-3302
▁fresh	-3303
▁laura	-3304
▁serve	-3305
▁stink	-3306
▁advice	-3307
▁bottle	-3308
▁busted	-3309
▁career	-3310
▁cousin	-3311
▁crying	-3312
▁engine	-3313
▁lately	-3314
▁prefer	-3315
▁treves	-3316
▁extreme	-3317
▁johnson	-3318
▁picking	-3319
▁receive	-3320
▁decision	-3321
▁planning	-3322
▁sergeant	-3323
▁perfectly	-3324
ex	-3325
par	-3326
cise	-3327
kman	-3328
▁cup	-3329
▁gas	-3330
▁gay	-3331
▁rev	-3332
▁tro	-3333
itten	-3334
spect	-3335
▁comb	-3336
▁kend	-3337
▁rese	-3338
▁ruiz	-3339
▁ryan	-3340
▁wire	-3341
ground	-3342
isters	-3343
▁balls	-3344
▁burns	-3345
▁queen	-3346
▁slave	-3347
ibility	-3348
▁border	-3349
▁myster	-3350
▁settle	-3351
▁showed	-3352
▁waited	-3353
▁yellow	-3354
▁emperor	-3355
▁walking	-3356
▁partners	-3357
▁pregnant	-3358
▁vacation	-3359
▁christmas	-3360
▁expecting	-3361
hy	-3362
ees	-3363
hol	-3364
ich	-3365
ker	-3366
rel	-3367
ste	-3368
aged	-3369
hael	-3370
ores	-3371
road	-3372
▁cos	-3373
▁luc	-3374
▁ron	-3375
▁rum	-3376
▁sna	-3377
▁spo	-3378
ondon	-3379
orney	-3380
under	-3381
▁code	-3382
▁fail	-3383
▁grab	-3384
▁heat	-3385
▁hire	-3386
▁hors	-3387
▁huge	-3388
▁inna	-3389
▁laid	-3390
▁sund	-3391
▁wick	-3392
icated	-3393
▁doors	-3394
▁japan	-3395
▁sneak	-3396
▁spell	-3397
▁split	-3398
▁sport	-3399
▁total	-3400
▁turns	-3401
cessary	-3402
▁assume	-3403
▁boring	-3404
▁distur	-3405
▁gettin	-3406
▁london	-3407
▁paying	-3408
▁repeat	-3409
▁matters	-3410
▁michael	-3411
▁science	-3412
▁attorney	-3413
▁character	-3414
▁ep	-3415
ging	-3416
iest	-3417
lier	-3418
osop	-3419
riff	-3420
vard	-3421
ware	-3422
▁ate	-3423
▁mau	-3424
▁ver	-3425
▁wig	-3426
house	-3427
sieur	-3428
ymour	-3429
▁eggs	-3430
▁rele	-3431
▁toil	-3432
▁wade	-3433
▁whis	-3434
▁youn	-3435
ressed	-3436
▁above	-3437
▁hated	-3438
▁heads	-3439
▁proof	-3440
▁separ	-3441
▁trial	-3442
▁became	-3443
▁frozen	-3444
▁horses	-3445
▁lights	-3446
▁pounds	-3447
▁scient	-3448
▁burning	-3449
▁defense	-3450
▁divorce	-3451
▁however	-3452
▁license	-3453
▁purpose	-3454
▁seymour	-3455
▁uniform	-3456
▁venkman	-3457
▁wedding	-3458
▁weekend	-3459
▁military	-3460
▁monsieur	-3461
▁prepared	-3462
▁sweetheart	-3463
ho	-3464
▁yo	-3465
ancy	-3466
etic	-3467
lies	-3468
pper	-3469
▁bug	-3470
▁fag	-3471
▁gal	-3472
▁gro	-3473
▁imm	-3474
▁lun	-3475
▁ram	-3476
ained	-3477
allow	-3478
igger	-3479
▁anal	-3480
▁bare	-3481
▁liar	-3482
▁milk	-3483
▁vill	-3484
icious	-3485
▁crack	-3486
▁moves	-3487
▁betray	-3488
▁bigger	-3489
▁desert	-3490
▁eighty	-3491
▁planet	-3492
▁regret	-3493
▁congrat	-3494
▁freedom	-3495
▁hunting	-3496
▁journal	-3497
▁reasons	-3498
▁sheriff	-3499
▁society	-3500
▁apparent	-3501
▁charming	-3502
▁philosop	-3503
ara	-3504
ila	-3505
▁ir	-3506
▁na	-3507
chan	-3508
enny	-3509
ises	-3510
▁haw	-3511
▁log	-3512
▁wil	-3513
ences	-3514
ortun	-3515
urity	-3516
▁cele	-3517
▁cree	-3518
▁exam	-3519
▁loud	-3520
▁ours	-3521
▁wast	-3522
▁among	-3523
▁finds	-3524
▁group	-3525
▁lilly	-3526
▁madam	-3527
▁medic	-3528
▁react	-3529
▁slept	-3530
▁spoke	-3531
▁casino	-3532
▁choose	-3533
▁indian	-3534
▁nigger	-3535
▁tongue	-3536
▁foreign	-3537
▁knowled	-3538
▁porters	-3539
▁skipper	-3540
▁soldier	-3541
▁tickets	-3542
▁weapons	-3543
▁feelings	-3544
▁horrible	-3545
▁opportun	-3546
▁pressure	-3547
▁sometime	-3548
▁virginia	-3549
▁congratul	-3550
▁following	-3551
▁collection	-3552
▁excellency	-3553
arm	-3554
ota	-3555
▁ur	-3556
ford	-3557
▁alb	-3558
▁boo	-3559
▁leo	-3560
▁mmm	-3561
▁carl	-3562
▁desp	-3563
▁dogs	-3564
▁legs	-3565
▁papa	-3566
▁ruth	-3567
▁sher	-3568
▁snow	-3569
▁stew	-3570
▁weak	-3571
iction	-3572
▁coast	-3573
▁gradu	-3574
▁grail	-3575
▁negot	-3576
▁plant	-3577
▁roger	-3578
▁berlin	-3579
▁burned	-3580
▁easier	-3581
▁hoping	-3582
▁object	-3583
▁slight	-3584
▁toilet	-3585
▁vienna	-3586
▁weapon	-3587
▁deserve	-3588
▁earlier	-3589
▁finding	-3590
▁monster	-3591
▁profess	-3592
▁regular	-3593
▁sixteen	-3594
▁criminal	-3595
▁railroad	-3596
▁naturally	-3597
▁professional	-3598
bon	-3599
ssa	-3600
ued	-3601
▁fi	-3602
like	-3603
lock	-3604
over	-3605
wire	-3606
▁ali	-3607
▁bal	-3608
▁bon	-3609
▁tie	-3610
▁wis	-3611
antic	-3612
▁duck	-3613
▁gods	-3614
▁joel	-3615
▁milo	-3616
▁thro	-3617
▁brand	-3618
▁chair	-3619
▁comin	-3620
▁escap	-3621
▁legal	-3622
▁brains	-3623
▁camera	-3624
▁drinks	-3625
▁faster	-3626
▁incred	-3627
▁negoti	-3628
▁nightm	-3629
▁rights	-3630
▁states	-3631
▁sunday	-3632
▁animals	-3633
▁natural	-3634
▁offered	-3635
▁stomach	-3636
▁research	-3637
▁whenever	-3638
▁knowledge	-3639
▁responsibility	-3640
erk	-3641
ero	-3642
gas	-3643
kin	-3644
lli	-3645
aren	-3646
bles	-3647
eday	-3648
iers	-3649
kins	-3650
rand	-3651
vert	-3652
▁ham	-3653
▁lim	-3654
▁nur	-3655
derer	-3656
hetic	-3657
istic	-3658
ograp	-3659
▁bobo	-3660
▁conk	-3661
▁cult	-3662
▁fake	-3663
▁hunt	-3664
▁juno	-3665
▁loan	-3666
▁nope	-3667
▁qual	-3668
▁thri	-3669
▁tort	-3670
▁wine	-3671
▁chest	-3672
▁clown	-3673
▁hates	-3674
▁lemme	-3675
▁liber	-3676
▁scott	-3677
▁smile	-3678
▁stone	-3679
▁swell	-3680
▁swing	-3681
▁twist	-3682
chester	-3683
ilities	-3684
ologist	-3685
ruction	-3686
▁accord	-3687
▁awhile	-3688
▁flying	-3689
▁jackie	-3690
▁tricks	-3691
▁disease	-3692
▁kendall	-3693
▁showing	-3694
▁someday	-3695
▁younger	-3696
▁murderer	-3697
▁speaking	-3698
▁disappeared	-3699
▁neighborhood	-3700
oud	-3701
rem	-3702
rom	-3703
▁ou	-3704
▁ye	-3705
gers	-3706
ilty	-3707
mber	-3708
onde	-3709
▁bay	-3710
▁kat	-3711
▁nut	-3712
allas	-3713
alous	-3714
ement	-3715
ender	-3716
istry	-3717
▁butt	-3718
▁junk	-3719
▁pike	-3720
▁ruin	-3721
▁seal	-3722
▁stol	-3723
▁stro	-3724
▁tour	-3725
▁tues	-3726
▁worm	-3727
▁beast	-3728
▁billy	-3729
▁cabin	-3730
▁colon	-3731
▁grave	-3732
▁hired	-3733
▁illeg	-3734
▁issue	-3735
▁mirac	-3736
▁nigga	-3737
▁occur	-3738
▁opera	-3739
▁paran	-3740
▁repor	-3741
▁stock	-3742
▁wally	-3743
vention	-3744
▁blonde	-3745
▁dallas	-3746
▁eleven	-3747
▁guilty	-3748
▁insult	-3749
▁target	-3750
▁thomas	-3751
▁wigand	-3752
▁dressed	-3753
▁touched	-3754
▁tuesday	-3755
▁written	-3756
▁bringing	-3757
▁carrying	-3758
▁fourteen	-3759
▁incident	-3760
▁security	-3761
▁shopping	-3762
▁nightmare	-3763
▁thousands	-3764
▁apparently	-3765
▁confidence	-3766
ez	-3767
aya	-3768
fle	-3769
nam	-3770
val	-3771
ergy	-3772
ints	-3773
rish	-3774
ssel	-3775
zing	-3776
▁deb	-3777
▁hoo	-3778
▁jul	-3779
▁liz	-3780
▁lut	-3781
▁ren	-3782
▁swe	-3783
eless	-3784
izing	-3785
▁euro	-3786
▁fart	-3787
▁held	-3788
▁impl	-3789
▁mole	-3790
▁narc	-3791
▁rate	-3792
▁virt	-3793
▁bache	-3794
▁clark	-3795
▁ended	-3796
▁magaz	-3797
▁maxie	-3798
▁nerve	-3799
▁sched	-3800
▁thumb	-3801
▁tooth	-3802
ization	-3803
sidered	-3804
utation	-3805
▁agency	-3806
▁amount	-3807
▁arnold	-3808
▁assass	-3809
▁bright	-3810
▁expert	-3811
▁helped	-3812
▁leaves	-3813
▁pieces	-3814
▁pocket	-3815
▁policy	-3816
▁vessel	-3817
▁appoint	-3818
▁concern	-3819
▁fortune	-3820
▁heading	-3821
▁request	-3822
▁thinkin	-3823
▁univers	-3824
▁memories	-3825
▁physical	-3826
▁professor	-3827
▁considered	-3828
▁permission	-3829
pr	-3830
▁x	-3831
ato	-3832
cer	-3833
ett	-3834
hic	-3835
▁vo	-3836
ased	-3837
erie	-3838
ites	-3839
rupt	-3840
wood	-3841
▁bow	-3842
▁dev	-3843
▁fra	-3844
▁unf	-3845
eller	-3846
itute	-3847
stone	-3848
▁bate	-3849
▁cert	-3850
▁disg	-3851
▁fund	-3852
▁gamb	-3853
▁hmmm	-3854
▁lied	-3855
▁neil	-3856
▁puff	-3857
▁sees	-3858
▁bound	-3859
▁chain	-3860
▁demon	-3861
▁deton	-3862
▁glory	-3863
▁grown	-3864
▁horiz	-3865
▁image	-3866
▁kidna	-3867
▁knife	-3868
▁naked	-3869
▁relig	-3870
▁shame	-3871
▁shock	-3872
▁stars	-3873
▁stren	-3874
▁theat	-3875
▁bourne	-3876
▁bullet	-3877
▁donnie	-3878
▁europe	-3879
▁friday	-3880
▁harder	-3881
▁likely	-3882
▁lowell	-3883
▁spring	-3884
▁stolen	-3885
▁theory	-3886
▁wallet	-3887
▁bateman	-3888
▁covered	-3889
▁manager	-3890
▁product	-3891
▁shangri	-3892
▁christian	-3893
▁corporate	-3894
▁necessary	-3895
▁sensitive	-3896
▁experiment	-3897
▁manchester	-3898
ai	-3899
ij	-3900
ats	-3901
eld	-3902
har	-3903
oms	-3904
▁ke	-3905
aced	-3906
anie	-3907
ffic	-3908
rove	-3909
▁dow	-3910
▁saf	-3911
asion	-3912
imate	-3913
tered	-3914
▁aven	-3915
▁cart	-3916
▁cats	-3917
▁copy	-3918
▁dare	-3919
▁disp	-3920
▁liqu	-3921
▁maid	-3922
▁mail	-3923
▁nail	-3924
▁owen	-3925
▁apple	-3926
▁cards	-3927
▁coinc	-3928
▁crowd	-3929
▁fixed	-3930
▁paint	-3931
▁penny	-3932
▁sever	-3933
▁shape	-3934
▁shirt	-3935
▁shots	-3936
▁spare	-3937
▁trunk	-3938
▁assign	-3939
▁babies	-3940
▁borrow	-3941
▁closer	-3942
▁conway	-3943
▁demons	-3944
▁employ	-3945
▁energy	-3946
▁forced	-3947
▁intern	-3948
▁nearly	-3949
▁nights	-3950
▁result	-3951
▁throat	-3952
▁tunnel	-3953
▁allowed	-3954
▁answers	-3955
▁arrived	-3956
▁conklin	-3957
▁convinc	-3958
▁details	-3959
▁emotion	-3960
▁falling	-3961
▁glasses	-3962
▁italian	-3963
▁pretend	-3964
▁quarter	-3965
▁selling	-3966
▁senator	-3967
▁bachelor	-3968
▁contract	-3969
▁followed	-3970
▁negative	-3971
▁destroyed	-3972
▁extremely	-3973
▁statement	-3974
▁attractive	-3975
▁possession	-3976
▁reasonable	-3977
▁reputation	-3978
▁motherfucker	-3979
aa	-3980
da	-3981
ana	-3982
ips	-3983
down	-3984
etch	-3985
llen	-3986
raft	-3987
rees	-3988
▁joy	-3989
▁pee	-3990
▁tex	-3991
▁til	-3992
anged	-3993
velop	-3994
▁aunt	-3995
▁bags	-3996
▁bite	-3997
▁boom	-3998
▁chap	-3999
▁cher	-4000
▁gard	-4001
▁june	-4002
▁moll	-4003
▁nons	-4004
▁path	-4005
▁punk	-4006
▁radi	-4007
▁roof	-4008
▁serv	-4009
▁aware	-4010
▁cliff	-4011
▁grant	-4012
▁ideas	-4013
▁mayor	-4014
▁revol	-4015
▁rooms	-4016
▁sacri	-4017
▁scale	-4018
▁storm	-4019
▁threw	-4020
▁vegas	-4021
▁brilli	-4022
▁clever	-4023
▁commit	-4024
▁corner	-4025
▁decent	-4026
▁precog	-4027
▁served	-4028
▁stayed	-4029
▁tellin	-4030
▁warren	-4031
▁changes	-4032
▁hearing	-4033
▁mothers	-4034
▁mueller	-4035
▁offense	-4036
▁psychic	-4037
▁replace	-4038
▁streets	-4039
▁exciting	-4040
▁midnight	-4041
▁nonsense	-4042
▁strength	-4043
▁universe	-4044
▁entertain	-4045
▁introduce	-4046
itz	-4047
oop	-4048
pet	-4049
ule	-4050
ders	-4051
esar	-4052
lled	-4053
▁inn	-4054
▁laz	-4055
▁naz	-4056
▁oil	-4057
▁tip	-4058
▁typ	-4059
▁vag	-4060
ached	-4061
ander	-4062
ashed	-4063
elope	-4064
icorn	-4065
uable	-4066
ushed	-4067
usion	-4068
▁bail	-4069
▁ears	-4070
▁gate	-4071
▁mall	-4072
▁rabb	-4073
▁bored	-4074
▁dozen	-4075
▁krist	-4076
▁nurse	-4077
▁speed	-4078
▁walls	-4079
▁caesar	-4080
▁includ	-4081
▁invite	-4082
▁lookin	-4083
▁monday	-4084
▁player	-4085
▁switch	-4086
▁growing	-4087
▁harvard	-4088
▁jealous	-4089
▁letting	-4090
▁manners	-4091
▁process	-4092
▁slaught	-4093
▁checking	-4094
▁divorced	-4095
▁entirely	-4096
▁friendly	-4097
▁minister	-4098
▁penelope	-4099
▁practice	-4100
▁fantastic	-4101
▁tradition	-4102
▁downstairs	-4103
▁protection	-4104
▁opportunity	-4105
▁practically	-4106
▁intelligence	-4107
for	-4108
gar	-4109
gen	-4110
lar	-4111
lyn	-4112
shi	-4113
▁dy	-4114
bing	-4115
book	-4116
ceed	-4117
iece	-4118
itty	-4119
lect	-4120
rant	-4121
▁led	-4122
▁mcc	-4123
▁pac	-4124
cohol	-4125
hered	-4126
▁asso	-4127
▁chat	-4128
▁deck	-4129
▁dies	-4130
▁educ	-4131
▁elev	-4132
▁fasc	-4133
▁indy	-4134
▁jobs	-4135
▁lift	-4136
▁meal	-4137
▁ment	-4138
▁nest	-4139
▁nurs	-4140
▁pity	-4141
▁rape	-4142
▁scot	-4143
▁scri	-4144
▁surf	-4145
▁teas	-4146
▁tits	-4147
▁whoa	-4148
abitch	-4149
nesota	-4150
verage	-4151
▁basic	-4152
▁bills	-4153
▁cloud	-4154
▁cream	-4155
▁downt	-4156
▁falls	-4157
▁fifth	-4158
▁holly	-4159
▁ident	-4160
▁loser	-4161
▁mixed	-4162
▁solid	-4163
▁stiff	-4164
▁style	-4165
▁telly	-4166
▁thief	-4167
▁warri	-4168
anation	-4169
▁create	-4170
▁damone	-4171
▁massey	-4172
▁mollie	-4173
▁recomm	-4174
▁regard	-4175
▁riding	-4176
▁safety	-4177
▁sexual	-4178
▁toward	-4179
▁united	-4180
▁unlike	-4181
▁alcohol	-4182
▁belongs	-4183
▁capable	-4184
▁frankly	-4185
▁horizon	-4186
▁medical	-4187
▁opening	-4188
▁reality	-4189
▁turning	-4190
▁attitude	-4191
▁confused	-4192
▁continue	-4193
▁darkness	-4194
▁national	-4195
▁brilliant	-4196
▁confident	-4197
▁expensive	-4198
▁mentioned	-4199
▁minnesota	-4200
▁explanation	-4201
▁investigation	-4202
▁congratulations	-4203
nn	-4204
col	-4205
erv	-4206
hew	-4207
ica	-4208
agon	-4209
asty	-4210
burg	-4211
oved	-4212
▁fab	-4213
▁fal	-4214
▁slo	-4215
▁vul	-4216
▁wid	-4217
▁wre	-4218
arant	-4219
guard	-4220
▁andy	-4221
▁bang	-4222
▁brad	-4223
▁dece	-4224
▁fate	-4225
▁jord	-4226
▁lies	-4227
▁navy	-4228
▁rope	-4229
▁soup	-4230
▁wash	-4231
▁cares	-4232
▁etern	-4233
▁larry	-4234
▁stake	-4235
▁center	-4236
▁commod	-4237
▁confir	-4238
▁descri	-4239
▁execut	-4240
▁fortun	-4241
▁fucker	-4242
▁knight	-4243
▁opened	-4244
▁oughta	-4245
▁reward	-4246
▁smells	-4247
▁winter	-4248
▁courage	-4249
▁dropped	-4250
▁federal	-4251
▁guarant	-4252
▁melanie	-4253
▁numbers	-4254
▁section	-4255
▁sending	-4256
▁downtown	-4257
▁eighteen	-4258
▁official	-4259
▁original	-4260
▁salesman	-4261
▁spending	-4262
▁according	-4263
▁assistant	-4264
▁convinced	-4265
▁intention	-4266
▁secretary	-4267
▁suspicious	-4268
▁appointment	-4269
we	-4270
boy	-4271
vey	-4272
▁dw	-4273
▁eg	-4274
ianc	-4275
just	-4276
oard	-4277
seum	-4278
ummy	-4279
▁arg	-4280
▁dee	-4281
▁dug	-4282
▁lat	-4283
▁lew	-4284
▁loy	-4285
▁tab	-4286
▁wet	-4287
hamed	-4288
ician	-4289
ining	-4290
orage	-4291
oting	-4292
stein	-4293
▁diam	-4294
▁sire	-4295
▁stan	-4296
▁tall	-4297
▁term	-4298
▁unha	-4299
▁unit	-4300
ashing	-4301
▁armed	-4302
▁blown	-4303
▁bobby	-4304
▁chess	-4305
▁curse	-4306
▁marks	-4307
▁rifle	-4308
▁sayin	-4309
▁staff	-4310
▁aboard	-4311
▁barely	-4312
▁bottom	-4313
▁dating	-4314
▁delive	-4315
▁demand	-4316
▁driver	-4317
▁garage	-4318
▁marvel	-4319
▁passen	-4320
▁shield	-4321
▁signal	-4322
▁ashamed	-4323
▁dealing	-4324
▁degrees	-4325
▁develop	-4326
▁express	-4327
▁illegal	-4328
▁knocked	-4329
▁passion	-4330
▁smoking	-4331
▁systems	-4332
▁theatre	-4333
▁attacked	-4334
▁bertrand	-4335
▁delivery	-4336
▁progress	-4337
▁recently	-4338
▁soldiers	-4339
▁valuable	-4340
▁wherever	-4341
▁cigarette	-4342
▁forgotten	-4343
▁incredible	-4344
rs	-4345
bly	-4346
iac	-4347
sha	-4348
xim	-4349
▁os	-4350
ades	-4351
iday	-4352
load	-4353
osit	-4354
play	-4355
town	-4356
umst	-4357
ural	-4358
▁jac	-4359
▁net	-4360
▁rot	-4361
▁tat	-4362
▁ult	-4363
▁wad	-4364
▁web	-4365
▁zoo	-4366
ittin	-4367
lling	-4368
oring	-4369
umber	-4370
▁cand	-4371
▁cars	-4372
▁core	-4373
▁jess	-4374
▁mask	-4375
▁pops	-4376
▁resc	-4377
▁rise	-4378
▁sway	-4379
▁unus	-4380
▁zero	-4381
ential	-4382
▁aband	-4383
▁blank	-4384
▁bones	-4385
▁deter	-4386
▁eaten	-4387
▁fashi	-4388
▁films	-4389
▁joint	-4390
▁knees	-4391
▁mercy	-4392
▁penis	-4393
▁sonof	-4394
▁spect	-4395
▁tests	-4396
▁texas	-4397
▁tower	-4398
▁usual	-4399
▁affect	-4400
▁avenue	-4401
▁butter	-4402
▁explos	-4403
▁farmer	-4404
▁golden	-4405
▁jordan	-4406
▁loving	-4407
▁luther	-4408
▁manage	-4409
▁source	-4410
▁weight	-4411
▁chances	-4412
▁cleaner	-4413
▁concept	-4414
▁contain	-4415
▁depends	-4416
▁disgust	-4417
▁funeral	-4418
▁holiday	-4419
▁perform	-4420
▁pleased	-4421
▁screwed	-4422
▁sisters	-4423
▁steward	-4424
▁fortress	-4425
▁handsome	-4426
▁honestly	-4427
▁laughing	-4428
▁powerful	-4429
▁received	-4430
▁impressed	-4431
▁cigarettes	-4432
▁university	-4433
▁williamson	-4434
▁particularly	-4435
vo	-4436
bel	-4437
cel	-4438
dom	-4439
ffy	-4440
oul	-4441
rit	-4442
ung	-4443
ager	-4444
elle	-4445
iami	-4446
inct	-4447
insk	-4448
moon	-4449
otic	-4450
ties	-4451
▁anx	-4452
▁ast	-4453
▁bum	-4454
▁clu	-4455
▁hab	-4456
▁pim	-4457
▁sue	-4458
▁tob	-4459
▁uns	-4460
aches	-4461
aking	-4462
cient	-4463
▁appe	-4464
▁bald	-4465
▁erik	-4466
▁exer	-4467
▁joey	-4468
▁leon	-4469
▁lion	-4470
▁meat	-4471
▁outl	-4472
▁pear	-4473
▁pent	-4474
▁pred	-4475
▁puss	-4476
▁race	-4477
▁stat	-4478
▁teen	-4479
▁tend	-4480
▁vent	-4481
▁warn	-4482
mother	-4483
ushing	-4484
▁alarm	-4485
▁badly	-4486
▁bride	-4487
▁broad	-4488
▁cheer	-4489
▁helen	-4490
▁indic	-4491
▁jacob	-4492
▁karen	-4493
▁kills	-4494
▁loyal	-4495
▁miami	-4496
▁minor	-4497
▁scrat	-4498
▁sharp	-4499
▁spank	-4500
▁video	-4501
▁admire	-4502
▁altern	-4503
▁buried	-4504
▁buying	-4505
▁county	-4506
▁desire	-4507
▁easily	-4508
▁fought	-4509
▁headed	-4510
▁hidden	-4511
▁intent	-4512
▁justin	-4513
▁violin	-4514
▁century	-4515
▁challen	-4516
▁created	-4517
▁diamond	-4518
▁fingers	-4519
▁kristen	-4520
▁privile	-4521
▁sweetie	-4522
▁trained	-4523
▁unicorn	-4524
▁winston	-4525
▁baseball	-4526
▁circumst	-4527
▁precious	-4528
▁supplies	-4529
▁creatures	-4530
▁honeymoon	-4531
▁eventually	-4532
▁frightened	-4533
▁impression	-4534
▁stewardess	-4535
▁understood	-4536
▁complicated	-4537
▁sonofabitch	-4538
iar	-4539
mes	-4540
uel	-4541
acco	-4542
ovan	-4543
uses	-4544
▁ade	-4545
▁aid	-4546
▁han	-4547
▁lif	-4548
▁lit	-4549
▁sed	-4550
itted	-4551
ption	-4552
ulate	-4553
▁chic	-4554
▁clin	-4555
▁dime	-4556
▁diss	-4557
▁dope	-4558
▁gree	-4559
▁guts	-4560
▁jill	-4561
▁lisa	-4562
▁merc	-4563
▁sale	-4564
▁scre	-4565
▁tail	-4566
▁tool	-4567
atives	-4568
father	-4569
▁accom	-4570
▁artic	-4571
▁avoid	-4572
▁coupl	-4573
▁danny	-4574
▁drown	-4575
▁false	-4576
▁leads	-4577
▁liter	-4578
▁lyssa	-4579
▁metal	-4580
▁musta	-4581
▁satan	-4582
underst	-4583
▁agreed	-4584
▁brings	-4585
▁cheese	-4586
▁compos	-4587
▁examin	-4588
▁filled	-4589
▁highly	-4590
▁legend	-4591
▁loaded	-4592
▁monkey	-4593
▁points	-4594
▁refuse	-4595
▁saving	-4596
▁signed	-4597
▁social	-4598
▁strike	-4599
ographer	-4600
▁donovan	-4601
▁planned	-4602
▁tobacco	-4603
▁winning	-4604
▁becoming	-4605
▁changing	-4606
▁dreaming	-4607
▁medicine	-4608
▁movement	-4609
▁pleasant	-4610
▁property	-4611
▁realized	-4612
▁thoughts	-4613
▁authority	-4614
▁carefully	-4615
▁committee	-4616
▁excellent	-4617
▁marvelous	-4618
▁operation	-4619
▁coincidence	-4620
con	-4621
gir	-4622
rid	-4623
▁cu	-4624
▁mm	-4625
aken	-4626
back	-4627
chie	-4628
empt	-4629
mbol	-4630
oret	-4631
phia	-4632
rely	-4633
roth	-4634
vior	-4635
▁arc	-4636
▁cia	-4637
▁enc	-4638
▁gig	-4639
▁les	-4640
▁nay	-4641
▁shr	-4642
▁sid	-4643
▁yah	-4644
aming	-4645
ising	-4646
orman	-4647
▁alth	-4648
▁buff	-4649
▁chip	-4650
▁dust	-4651
▁edge	-4652
▁enid	-4653
▁folk	-4654
▁gall	-4655
▁gear	-4656
▁glor	-4657
▁grav	-4658
▁grus	-4659
▁jose	-4660
▁lind	-4661
▁pays	-4662
▁rush	-4663
▁sexy	-4664
▁sink	-4665
▁stab	-4666
▁toss	-4667
▁vers	-4668
▁vice	-4669
ateful	-4670
cement	-4671
▁alien	-4672
▁argue	-4673
▁below	-4674
▁pills	-4675
▁plain	-4676
▁recon	-4677
▁tryin	-4678
▁union	-4679
ailable	-4680
inskaya	-4681
▁affair	-4682
▁damage	-4683
▁ferrie	-4684
▁forest	-4685
▁johnny	-4686
▁mirror	-4687
▁rescue	-4688
▁spread	-4689
▁symbol	-4690
▁ancient	-4691
▁comprom	-4692
▁confess	-4693
▁engaged	-4694
▁escaped	-4695
▁miracle	-4696
▁options	-4697
▁parking	-4698
▁pattern	-4699
▁rexroth	-4700
▁storage	-4701
▁traffic	-4702
▁unusual	-4703
▁village	-4704
▁warning	-4705
▁although	-4706
▁breaking	-4707
▁chemical	-4708
▁communic	-4709
▁distance	-4710
▁goodness	-4711
▁graduate	-4712
▁grateful	-4713
▁paranoid	-4714
▁throwing	-4715
▁community	-4716
▁therefore	-4717
▁connection	-4718
▁convention	-4719
▁grusinskaya	-4720
▁circumstances	-4721
▁unfortunately	-4722
af	-4723
ada	-4724
gle	-4725
got	-4726
lsa	-4727
oln	-4728
ugs	-4729
ula	-4730
uls	-4731
uva	-4732
zak	-4733
anda	-4734
bage	-4735
case	-4736
colm	-4737
ghed	-4738
hest	-4739
jack	-4740
outs	-4741
tain	-4742
tery	-4743
zech	-4744
▁bud	-4745
▁cit	-4746
▁ian	-4747
▁jew	-4748
▁kir	-4749
▁lap	-4750
▁ooo	-4751
▁pit	-4752
▁sup	-4753
grove	-4754
issus	-4755
▁adop	-4756
▁cake	-4757
▁cave	-4758
▁deny	-4759
▁digg	-4760
▁eliz	-4761
▁epis	-4762
▁fame	-4763
▁hawk	-4764
▁hung	-4765
▁ilsa	-4766
▁link	-4767
▁mile	-4768
▁odds	-4769
▁pian	-4770
▁rage	-4771
▁rand	-4772
▁shad	-4773
▁tied	-4774
▁visa	-4775
overed	-4776
▁abort	-4777
▁album	-4778
▁angel	-4779
▁armor	-4780
▁benef	-4781
▁climb	-4782
▁czech	-4783
▁delic	-4784
▁disco	-4785
▁dodge	-4786
▁duffy	-4787
▁limit	-4788
▁lovey	-4789
▁nicky	-4790
▁penit	-4791
▁route	-4792
▁score	-4793
▁simon	-4794
▁sloan	-4795
▁spark	-4796
▁sugar	-4797
▁talby	-4798
▁widow	-4799
▁artist	-4800
▁boston	-4801
▁coulda	-4802
▁device	-4803
▁felson	-4804
▁fourth	-4805
▁hallow	-4806
▁insist	-4807
▁jacket	-4808
▁messed	-4809
▁nerves	-4810
▁princi	-4811
▁proced	-4812
▁produc	-4813
▁resign	-4814
▁resist	-4815
▁ruined	-4816
▁script	-4817
▁season	-4818
▁senate	-4819
▁smooth	-4820
atherine	-4821
▁capital	-4822
▁cleaned	-4823
▁concert	-4824
▁francis	-4825
▁germans	-4826
▁malcolm	-4827
▁ordered	-4828
▁prevent	-4829
▁shuttle	-4830
▁swayzak	-4831
▁trusted	-4832
▁unhappy	-4833
▁yelling	-4834
▁approach	-4835
▁arranged	-4836
▁cosgrove	-4837
▁instance	-4838
▁instruct	-4839
▁millions	-4840
▁surround	-4841
▁daughters	-4842
▁narcissus	-4843
▁newspaper	-4844
▁policeman	-4845
▁someplace	-4846
▁misunderst	-4847
▁successful	-4848
sm	-4849
aem	-4850
ago	-4851
bby	-4852
bid	-4853
sis	-4854
zer	-4855
▁tu	-4856
▁ut	-4857
aemm	-4858
gger	-4859
ples	-4860
roll	-4861
sequ	-4862
ucky	-4863
well	-4864
▁ant	-4865
▁bot	-4866
▁jet	-4867
▁nup	-4868
▁pup	-4869
▁row	-4870
▁umm	-4871
aring	-4872
iring	-4873
pting	-4874
▁acqu	-4875
▁anti	-4876
▁coke	-4877
▁dirt	-4878
▁gump	-4879
▁lack	-4880
▁linc	-4881
▁prem	-4882
▁seek	-4883
▁shel	-4884
▁symp	-4885
▁unre	-4886
▁vigo	-4887
▁wide	-4888
▁woke	-4889
itions	-4890
▁amber	-4891
▁assum	-4892
▁brave	-4893
▁china	-4894
▁cigar	-4895
▁citiz	-4896
▁cruel	-4897
▁drank	-4898
▁final	-4899
▁giant	-4900
▁humor	-4901
▁jerry	-4902
▁march	-4903
▁mater	-4904
▁media	-4905
▁mustn	-4906
▁pussy	-4907
▁royal	-4908
▁scary	-4909
▁stall	-4910
▁sting	-4911
▁sucks	-4912
▁title	-4913
▁trace	-4914
▁calvin	-4915
▁cowgir	-4916
▁dealer	-4917
▁flaemm	-4918
▁grandp	-4919
▁humili	-4920
▁intend	-4921
▁jungle	-4922
▁nation	-4923
▁psycho	-4924
▁remain	-4925
▁russia	-4926
▁satell	-4927
▁sheila	-4928
▁underw	-4929
▁waitin	-4930
▁bullets	-4931
▁chasing	-4932
▁convict	-4933
▁deposit	-4934
▁helluva	-4935
▁liberty	-4936
▁lincoln	-4937
▁negroes	-4938
▁precise	-4939
▁precogs	-4940
▁provide	-4941
▁release	-4942
▁setting	-4943
▁several	-4944
▁twisted	-4945
▁warrior	-4946
▁argument	-4947
▁distract	-4948
▁japanese	-4949
▁learning	-4950
▁pathetic	-4951
▁schedule	-4952
▁terrific	-4953
▁available	-4954
▁catherine	-4955
▁delivered	-4956
▁desperate	-4957
▁probation	-4958
▁satisfied	-4959
▁seventeen	-4960
▁newspapers	-4961
▁photograph	-4962
▁possibility	-4963
▁understanding	-4964
hl	-4965
bow	-4966
esh	-4967
gie	-4968
lim	-4969
lle	-4970
nat	-4971
▁hm	-4972
▁ii	-4973
▁ni	-4974
▁pi	-4975
aint	-4976
ateg	-4977
born	-4978
cred	-4979
elly	-4980
erve	-4981
geon	-4982
oked	-4983
ucle	-4984
vage	-4985
ysis	-4986
▁aim	-4987
▁gab	-4988
▁jee	-4989
▁nap	-4990
▁pas	-4991
▁rac	-4992
▁suz	-4993
acher	-4994
anger	-4995
aries	-4996
asure	-4997
iator	-4998
ilton	-4999
osing	-5000
otton	-5001
▁burg	-5002
▁eddy	-5003
▁exit	-5004
▁fade	-5005
▁gain	-5006
▁gest	-5007
▁grun	-5008
▁loss	-5009
▁male	-5010
▁outp	-5011
▁owns	-5012
▁penn	-5013
▁sail	-5014
▁slip	-5015
▁thor	-5016
▁viet	-5017
ursday	-5018
▁adult	-5019
▁aside	-5020
▁asses	-5021
▁boots	-5022
▁bread	-5023
▁camer	-5024
▁candy	-5025
▁cents	-5026
▁conce	-5027
▁fully	-5028
▁lewis	-5029
▁logan	-5030
▁motor	-5031
▁noise	-5032
▁occup	-5033
▁patri	-5034
▁shift	-5035
▁spill	-5036
▁suits	-5037
▁talks	-5038
▁werew	-5039
▁whore	-5040
▁woods	-5041
▁appeal	-5042
▁commer	-5043
▁cotton	-5044
▁coupla	-5045
▁coward	-5046
▁france	-5047
▁hustle	-5048
▁joseph	-5049
▁leader	-5050
▁liquor	-5051
▁locker	-5052
▁palace	-5053
▁remark	-5054
▁remote	-5055
▁retire	-5056
▁sacred	-5057
▁splend	-5058
▁strict	-5059
▁teleph	-5060
▁vision	-5061
ological	-5062
▁charges	-5063
▁clearly	-5064
▁clement	-5065
▁counsel	-5066
▁fantasy	-5067
▁foolish	-5068
▁garbage	-5069
▁passing	-5070
▁slipped	-5071
istration	-5072
▁champion	-5073
▁hamilton	-5074
▁hopeless	-5075
▁mountain	-5076
▁penitent	-5077
▁threaten	-5078
▁thursday	-5079
▁committed	-5080
▁goddammit	-5081
▁halloween	-5082
▁interests	-5083
▁witnesses	-5084
▁unfortunate	-5085
fs	-5086
jo	-5087
kn	-5088
oe	-5089
vi	-5090
els	-5091
gun	-5092
oen	-5093
oom	-5094
ril	-5095
sed	-5096
urd	-5097
urt	-5098
wer	-5099
▁bi	-5100
▁lt	-5101
adel	-5102
alie	-5103
kind	-5104
lers	-5105
oles	-5106
orms	-5107
phan	-5108
rian	-5109
roit	-5110
spir	-5111
tled	-5112
vere	-5113
▁asp	-5114
▁aug	-5115
▁cbs	-5116
▁dea	-5117
▁inj	-5118
▁oui	-5119
▁ros	-5120
▁spy	-5121
abeth	-5122
erton	-5123
ianca	-5124
▁budd	-5125
▁bump	-5126
▁dela	-5127
▁duke	-5128
▁ends	-5129
▁fare	-5130
▁hack	-5131
▁hull	-5132
▁laws	-5133
▁scan	-5134
▁snap	-5135
▁spok	-5136
inated	-5137
ipment	-5138
▁adele	-5139
▁admin	-5140
▁angle	-5141
▁banks	-5142
▁began	-5143
▁bleed	-5144
▁cases	-5145
▁celeb	-5146
▁clerk	-5147
▁conor	-5148
▁contr	-5149
▁crush	-5150
▁firef	-5151
▁flesh	-5152
▁holds	-5153
▁miser	-5154
▁ninet	-5155
▁notes	-5156
▁nucle	-5157
▁prick	-5158
▁spear	-5159
▁stret	-5160
▁teddy	-5161
▁teleg	-5162
▁value	-5163
▁whist	-5164
ulation	-5165
▁adjust	-5166
▁begins	-5167
▁bianca	-5168
▁condem	-5169
▁experi	-5170
▁invent	-5171
▁jumped	-5172
▁junior	-5173
▁kicked	-5174
▁market	-5175
▁priest	-5176
▁rabbit	-5177
▁recall	-5178
▁robber	-5179
▁samuel	-5180
▁silver	-5181
▁temper	-5182
▁ability	-5183
▁accompl	-5184
▁angeles	-5185
▁chicago	-5186
▁consequ	-5187
▁detroit	-5188
▁example	-5189
▁healthy	-5190
▁journey	-5191
▁madison	-5192
▁mystery	-5193
▁package	-5194
▁pageant	-5195
▁popular	-5196
▁pulling	-5197
▁related	-5198
▁scratch	-5199
▁secrets	-5200
▁spoiled	-5201
▁staring	-5202
▁wallace	-5203
▁wasting	-5204
▁westley	-5205
▁arrested	-5206
▁bleeding	-5207
▁commodus	-5208
▁crawling	-5209
▁freezing	-5210
▁hundreds	-5211
▁ordinary	-5212
▁poisoned	-5213
▁stealing	-5214
▁bothering	-5215
▁breathing	-5216
▁customers	-5217
▁elizabeth	-5218
▁equipment	-5219
▁hollywood	-5220
▁performan	-5221
▁detectives	-5222
▁discovered	-5223
▁considering	-5224
▁grandmother	-5225
▁underground	-5226
▁arrangements	-5227
▁confidential	-5228
ox	-5229
aws	-5230
cil	-5231
fun	-5232
lla	-5233
thy	-5234
van	-5235
▁ga	-5236
▁ze	-5237
dale	-5238
fied	-5239
hill	-5240
iggy	-5241
iner	-5242
ivin	-5243
rews	-5244
rict	-5245
uary	-5246
▁atl	-5247
▁atm	-5248
▁hyp	-5249
▁jen	-5250
▁len	-5251
▁tub	-5252
▁var	-5253
▁yon	-5254
▁yup	-5255
ament	-5256
bered	-5257
ially	-5258
iving	-5259
▁babe	-5260
▁bury	-5261
▁decl	-5262
▁ease	-5263
▁gren	-5264
▁hamb	-5265
▁kent	-5266
▁mast	-5267
▁outf	-5268
▁pals	-5269
▁pant	-5270
▁sera	-5271
▁tank	-5272
▁vamp	-5273
tering	-5274
uction	-5275
▁charm	-5276
▁cheat	-5277
▁engin	-5278
▁givin	-5279
▁hurts	-5280
▁irish	-5281
▁kinds	-5282
▁lions	-5283
▁maude	-5284
▁noble	-5285
▁pride	-5286
▁sanct	-5287
▁sandy	-5288
▁stays	-5289
▁steed	-5290
▁terms	-5291
▁waves	-5292
▁witch	-5293
▁wreck	-5294
ability	-5295
itation	-5296
▁apples	-5297
▁assure	-5298
▁august	-5299
▁compet	-5300
▁dragon	-5301
▁exchan	-5302
▁gruner	-5303
▁maniac	-5304
▁merger	-5305
▁museum	-5306
▁screen	-5307
▁speaks	-5308
▁sports	-5309
▁starck	-5310
▁stress	-5311
▁struct	-5312
▁sucker	-5313
▁thumbs	-5314
▁warned	-5315
▁woodly	-5316
adelphia	-5317
▁beloved	-5318
▁counter	-5319
▁destiny	-5320
▁doctors	-5321
▁drawing	-5322
▁episode	-5323
▁flowers	-5324
▁hurting	-5325
▁murders	-5326
▁norbert	-5327
▁outpost	-5328
▁routine	-5329
▁suzette	-5330
▁swallow	-5331
▁torture	-5332
▁transit	-5333
forcement	-5334
▁audience	-5335
▁composer	-5336
▁constant	-5337
▁deserves	-5338
▁insulted	-5339
▁magazine	-5340
▁magnific	-5341
▁officers	-5342
▁readings	-5343
▁reporter	-5344
▁splendid	-5345
▁standard	-5346
▁terribly	-5347
▁werewolf	-5348
▁backwards	-5349
▁bodyguard	-5350
▁cooperate	-5351
▁exception	-5352
▁procedure	-5353
▁radiation	-5354
▁recommend	-5355
▁worthless	-5356
▁confession	-5357
▁impressive	-5358
▁philosophy	-5359
▁embarrassed	-5360
▁grandfather	-5361
▁personality	-5362
▁slaughtered	-5363
▁philadelphia	-5364
xy	-5365
aup	-5366
aur	-5367
can	-5368
car	-5369
com	-5370
fus	-5371
het	-5372
izz	-5373
lda	-5374
pes	-5375
phy	-5376
pps	-5377
▁si	-5378
away	-5379
ella	-5380
fice	-5381
ggie	-5382
iles	-5383
ippi	-5384
olet	-5385
race	-5386
rett	-5387
▁amm	-5388
▁ape	-5389
▁dim	-5390
▁fav	-5391
▁gag	-5392
▁hou	-5393
▁oak	-5394
▁obl	-5395
▁que	-5396
▁raw	-5397
▁sau	-5398
▁una	-5399
amins	-5400
atoes	-5401
aupin	-5402
etime	-5403
ilies	-5404
inese	-5405
ounce	-5406
uffle	-5407
uster	-5408
vince	-5409
▁bart	-5410
▁beef	-5411
▁bend	-5412
▁dawn	-5413
▁dean	-5414
▁dwar	-5415
▁entr	-5416
▁flip	-5417
▁jeez	-5418
▁neat	-5419
▁neut	-5420
▁prim	-5421
▁tiny	-5422
▁tran	-5423
▁trib	-5424
▁weed	-5425
inting	-5426
▁anger	-5427
▁angie	-5428
▁birds	-5429
▁cable	-5430
▁concl	-5431
▁diary	-5432
▁doyle	-5433
▁ellen	-5434
▁greed	-5435
▁guide	-5436
▁helps	-5437
▁holes	-5438
▁lamar	-5439
▁linda	-5440
▁lover	-5441
▁lower	-5442
▁motel	-5443
▁piano	-5444
▁pinta	-5445
▁print	-5446
▁punch	-5447
▁quote	-5448
▁roman	-5449
▁solve	-5450
▁sophi	-5451
▁stage	-5452
▁steps	-5453
▁toler	-5454
▁wolfi	-5455
issippi	-5456
▁advant	-5457
▁bloody	-5458
▁button	-5459
▁caused	-5460
▁cherry	-5461
▁childs	-5462
▁engage	-5463
▁faggot	-5464
▁finest	-5465
▁flower	-5466
▁former	-5467
▁genius	-5468
▁lesson	-5469
▁limits	-5470
▁meters	-5471
▁miller	-5472
▁prince	-5473
▁shadow	-5474
▁strang	-5475
▁taupin	-5476
▁useful	-5477
▁accused	-5478
▁anxious	-5479
▁attempt	-5480
▁average	-5481
▁breathe	-5482
▁carried	-5483
▁chinese	-5484
▁clients	-5485
▁colored	-5486
▁contest	-5487
▁crossed	-5488
▁demonst	-5489
▁depress	-5490
▁disturb	-5491
▁enemies	-5492
▁fireman	-5493
▁inspect	-5494
▁kissing	-5495
▁managed	-5496
▁natalie	-5497
▁nuclear	-5498
▁shoulda	-5499
▁skywire	-5500
▁thirsty	-5501
▁victims	-5502
▁wanting	-5503
▁windows	-5504
▁cleaning	-5505
▁exercise	-5506
▁families	-5507
▁painting	-5508
▁politics	-5509
▁psychiat	-5510
▁shoulder	-5511
▁agreement	-5512
▁emotional	-5513
▁existence	-5514
▁guarantee	-5515
▁institute	-5516
▁clementine	-5517
▁compromise	-5518
▁concentrate	-5519
▁intelligent	-5520
▁mississippi	-5521
▁questioning	-5522
uj	-5523
ww	-5524
arn	-5525
cho	-5526
gel	-5527
iod	-5528
isc	-5529
llo	-5530
off	-5531
rib	-5532
uum	-5533
win	-5534
▁mc	-5535
▁ts	-5536
adem	-5537
gage	-5538
gain	-5539
gins	-5540
hern	-5541
iety	-5542
keep	-5543
sect	-5544
uous	-5545
▁biz	-5546
▁dom	-5547
▁eff	-5548
▁gum	-5549
▁scr	-5550
▁tha	-5551
▁tig	-5552
▁tod	-5553
edict	-5554
field	-5555
ierce	-5556
illac	-5557
rault	-5558
▁acce	-5559
▁anna	-5560
▁asks	-5561
▁bars	-5562
▁beck	-5563
▁carp	-5564
▁clue	-5565
▁defe	-5566
▁drum	-5567
▁earn	-5568
▁echo	-5569
▁firm	-5570
▁grew	-5571
▁guit	-5572
▁lake	-5573
▁luis	-5574
▁mate	-5575
▁mick	-5576
▁noir	-5577
▁pigs	-5578
▁tips	-5579
▁unbe	-5580
▁vari	-5581
▁ward	-5582
▁whoo	-5583
▁wins	-5584
▁yard	-5585
▁alley	-5586
▁based	-5587
▁beats	-5588
▁blast	-5589
▁bless	-5590
▁coron	-5591
▁couch	-5592
▁couer	-5593
▁fancy	-5594
▁fried	-5595
▁gross	-5596
▁hears	-5597
▁jenny	-5598
▁moral	-5599
▁nasty	-5600
▁piggy	-5601
▁shake	-5602
▁shout	-5603
▁spain	-5604
▁stacy	-5605
▁steel	-5606
▁stood	-5607
▁tread	-5608
▁wives	-5609
ception	-5610
igation	-5611
▁academ	-5612
▁ballet	-5613
▁calcul	-5614
▁clinic	-5615
▁cluett	-5616
▁events	-5617
▁failed	-5618
▁hambur	-5619
▁ignore	-5620
▁joking	-5621
▁league	-5622
▁parker	-5623
▁pearls	-5624
▁period	-5625
▁ripped	-5626
▁robert	-5627
▁ronnie	-5628
▁sharks	-5629
▁spanky	-5630
▁steady	-5631
▁stroke	-5632
▁therap	-5633
▁unfair	-5634
▁unique	-5635
▁delight	-5636
▁gravity	-5637
▁heavens	-5638
▁musical	-5639
▁pacific	-5640
▁privacy	-5641
▁reminds	-5642
▁respond	-5643
▁testify	-5644
▁trigger	-5645
▁victory	-5646
▁analysis	-5647
▁cadillac	-5648
▁electric	-5649
▁expenses	-5650
▁function	-5651
▁kindness	-5652
▁occasion	-5653
▁perrault	-5654
▁preacher	-5655
▁services	-5656
▁telegram	-5657
▁thirteen	-5658
▁wondered	-5659
▁political	-5660
▁screaming	-5661
▁suffering	-5662
▁afterwards	-5663
▁detonation	-5664
▁businessman	-5665
▁magnificent	-5666
▁mothershead	-5667
▁performance	-5668
▁disappointed	-5669
▁embarrassing	-5670
ga	-5671
gr	-5672
yl	-5673
amm	-5674
ask	-5675
azz	-5676
dan	-5677
ipt	-5678
rop	-5679
sit	-5680
ulf	-5681
zzo	-5682
▁kr	-5683
▁ss	-5684
ader	-5685
anta	-5686
anzi	-5687
ases	-5688
bled	-5689
ctic	-5690
eeze	-5691
ilar	-5692
mond	-5693
plex	-5694
pson	-5695
rina	-5696
umbo	-5697
unez	-5698
yers	-5699
▁bun	-5700
▁cuz	-5701
▁dub	-5702
▁ess	-5703
▁hay	-5704
▁pra	-5705
▁rae	-5706
▁sig	-5707
▁spr	-5708
▁toy	-5709
craft	-5710
gment	-5711
imony	-5712
otine	-5713
rated	-5714
smith	-5715
ticip	-5716
vable	-5717
▁anno	-5718
▁beam	-5719
▁bron	-5720
▁cran	-5721
▁cycl	-5722
▁dent	-5723
▁dill	-5724
▁epps	-5725
▁exec	-5726
▁fits	-5727
▁ford	-5728
▁gran	-5729
▁herb	-5730
▁hous	-5731
▁iron	-5732
▁lame	-5733
▁lucy	-5734
▁meth	-5735
▁mong	-5736
▁poet	-5737
▁puke	-5738
▁puts	-5739
▁rans	-5740
▁rare	-5741
▁repl	-5742
▁rust	-5743
▁sean	-5744
▁sets	-5745
▁tons	-5746
▁wand	-5747
▁wars	-5748
oretta	-5749
▁actor	-5750
▁autom	-5751
▁bleek	-5752
▁boxes	-5753
▁brook	-5754
▁chase	-5755
▁chili	-5756
▁creep	-5757
▁cripp	-5758
▁ellie	-5759
▁facts	-5760
▁forth	-5761
▁fruit	-5762
▁fucks	-5763
▁grabb	-5764
▁hitch	-5765
▁hoped	-5766
▁horns	-5767
▁hound	-5768
▁jokes	-5769
▁lands	-5770
▁makin	-5771
▁minds	-5772
▁moder	-5773
▁nunez	-5774
▁parad	-5775
▁raped	-5776
▁reven	-5777
▁scent	-5778
▁scram	-5779
▁skill	-5780
▁walks	-5781
inating	-5782
venient	-5783
▁absurd	-5784
▁access	-5785
▁advise	-5786
▁beware	-5787
▁brooke	-5788
▁combat	-5789
▁cooper	-5790
▁defend	-5791
▁escort	-5792
▁exists	-5793
▁faerie	-5794
▁fallen	-5795
▁gamble	-5796
▁hammer	-5797
▁height	-5798
▁issues	-5799
▁laying	-5800
▁marvin	-5801
▁member	-5802
▁owners	-5803
▁peters	-5804
▁senior	-5805
▁shrink	-5806
▁slowly	-5807
▁stream	-5808
▁struck	-5809
▁sympat	-5810
▁termin	-5811
▁troops	-5812
▁waters	-5813
▁anticip	-5814
▁bargain	-5815
▁beating	-5816
▁buddies	-5817
▁chamber	-5818
▁charged	-5819
▁circuit	-5820
▁council	-5821
▁digging	-5822
▁entered	-5823
▁farmers	-5824
▁houston	-5825
▁katrina	-5826
▁loretta	-5827
▁mankind	-5828
▁plastic	-5829
▁prepare	-5830
▁renault	-5831
▁retired	-5832
▁shotgun	-5833
▁shuffle	-5834
▁sounded	-5835
▁student	-5836
▁windham	-5837
▁assholes	-5838
▁basement	-5839
▁bastards	-5840
▁behavior	-5841
▁designed	-5842
▁determin	-5843
▁dropping	-5844
▁entrance	-5845
▁everyday	-5846
▁ladyship	-5847
▁lifetime	-5848
▁listened	-5849
▁maintain	-5850
▁marrying	-5851
▁nicotine	-5852
▁reaction	-5853
▁romantic	-5854
▁starving	-5855
▁stopping	-5856
▁studying	-5857
▁teachers	-5858
▁touching	-5859
▁abandoned	-5860
▁condemned	-5861
▁direction	-5862
▁including	-5863
▁miserable	-5864
▁overnight	-5865
▁practical	-5866
▁precisely	-5867
▁privilege	-5868
▁remembers	-5869
▁slightest	-5870
▁violation	-5871
▁appearance	-5872
▁blacksmith	-5873
▁conference	-5874
▁disgusting	-5875
▁programmed	-5876
▁revolution	-5877
▁containment	-5878
▁shuffleboard	-5879
▁motherfuckers	-5880
▁administration	-5881
lu	-5882
aac	-5883
ano	-5884
asa	-5885
bey	-5886
den	-5887
ibi	-5888
irm	-5889
kee	-5890
nis	-5891
zed	-5892
▁oo	-5893
ador	-5894
agne	-5895
cour	-5896
ials	-5897
inal	-5898
itel	-5899
mark	-5900
mate	-5901
mbry	-5902
miss	-5903
osen	-5904
oted	-5905
otes	-5906
ower	-5907
uced	-5908
udes	-5909
umes	-5910
▁ash	-5911
▁bio	-5912
▁div	-5913
▁gut	-5914
▁kar	-5915
▁nam	-5916
▁shh	-5917
▁shy	-5918
▁tag	-5919
▁yan	-5920
ckets	-5921
crime	-5922
ected	-5923
ivity	-5924
neath	-5925
sters	-5926
▁acts	-5927
▁auto	-5928
▁diet	-5929
▁doug	-5930
▁elle	-5931
▁excl	-5932
▁furn	-5933
▁hers	-5934
▁hirs	-5935
▁hits	-5936
▁jean	-5937
▁kurt	-5938
▁newt	-5939
▁oath	-5940
▁oona	-5941
▁pale	-5942
▁pist	-5943
▁pole	-5944
▁ruby	-5945
▁smok	-5946
▁stag	-5947
▁swed	-5948
▁vote	-5949
▁wore	-5950
anding	-5951
isible	-5952
▁belly	-5953
▁bonds	-5954
▁burst	-5955
▁cheek	-5956
▁equal	-5957
▁fever	-5958
▁grain	-5959
▁homes	-5960
▁horny	-5961
▁isaac	-5962
▁myers	-5963
▁opens	-5964
▁photo	-5965
▁poker	-5966
▁prior	-5967
▁range	-5968
▁rapid	-5969
▁slice	-5970
▁snuff	-5971
▁squad	-5972
▁sweat	-5973
▁tapes	-5974
▁tears	-5975
▁tiger	-5976
▁whati	-5977
▁youth	-5978
assador	-5979
ciation	-5980
natural	-5981
osphere	-5982
▁advent	-5983
▁approp	-5984
▁arctic	-5985
▁bembry	-5986
▁cancel	-5987
▁chosen	-5988
▁fellas	-5989
▁freddy	-5990
▁hearts	-5991
▁indust	-5992
▁keitel	-5993
▁kirsty	-5994
▁perman	-5995
▁polite	-5996
▁profit	-5997
▁reserv	-5998
▁salary	-5999
▁slaves	-6000
▁stairs	-6001
▁studio	-6002
▁vacuum	-6003
▁wasted	-6004
▁winner	-6005
▁workin	-6006
▁actress	-6007
▁african	-6008
▁apology	-6009
▁baldwin	-6010
▁central	-6011
▁chapter	-6012
▁charles	-6013
▁classes	-6014
▁closing	-6015
▁costume	-6016
▁cutting	-6017
▁elephan	-6018
▁eternal	-6019
▁factory	-6020
▁failure	-6021
▁fishing	-6022
▁higgins	-6023
▁lunatic	-6024
▁parties	-6025
▁possess	-6026
▁propose	-6027
▁results	-6028
▁sandman	-6029
▁shaking	-6030
▁similar	-6031
▁studies	-6032
▁theresa	-6033
▁trapped	-6034
▁warrant	-6035
▁brooklyn	-6036
▁facility	-6037
▁location	-6038
▁material	-6039
▁mistakes	-6040
▁occurred	-6041
▁peaceful	-6042
▁precrime	-6043
▁prospect	-6044
▁religion	-6045
▁reported	-6046
▁separate	-6047
▁survived	-6048
▁swimming	-6049
▁associate	-6050
▁certified	-6051
▁champagne	-6052
▁gladiator	-6053
▁happiness	-6054
▁mountains	-6055
▁religious	-6056
▁sacrifice	-6057
▁satellite	-6058
▁activities	-6059
▁ambassador	-6060
▁forgetting	-6061
▁underneath	-6062
▁enforcement	-6063
▁photographs	-6064
▁assassination	-6065
ds	-6066
ns	-6067
uf	-6068
esc	-6069
iki	-6070
irt	-6071
rum	-6072
tan	-6073
▁kl	-6074
▁ol	-6075
aded	-6076
atch	-6077
bish	-6078
daya	-6079
eous	-6080
ggin	-6081
gues	-6082
ocol	-6083
omes	-6084
onda	-6085
onia	-6086
oses	-6087
pend	-6088
rier	-6089
▁cav	-6090
▁der	-6091
▁nav	-6092
▁ole	-6093
▁reb	-6094
▁rip	-6095
▁suf	-6096
▁toe	-6097
▁vit	-6098
eeney	-6099
enced	-6100
grate	-6101
hical	-6102
hilda	-6103
inate	-6104
lines	-6105
thorn	-6106
while	-6107
▁anne	-6108
▁atta	-6109
▁bent	-6110
▁bren	-6111
▁brut	-6112
▁bund	-6113
▁cafe	-6114
▁choo	-6115
▁cure	-6116
▁dame	-6117
▁deer	-6118
▁dict	-6119
▁dish	-6120
▁dull	-6121
▁egon	-6122
▁emil	-6123
▁gill	-6124
▁goat	-6125
▁golf	-6126
▁hart	-6127
▁inch	-6128
▁init	-6129
▁kidd	-6130
▁lets	-6131
▁libr	-6132
▁lick	-6133
▁limb	-6134
▁mild	-6135
▁owes	-6136
▁plat	-6137
▁poem	-6138
▁sack	-6139
▁scra	-6140
▁sore	-6141
▁sout	-6142
▁sten	-6143
▁ther	-6144
▁thin	-6145
encies	-6146
hattan	-6147
imeter	-6148
keeper	-6149
nesday	-6150
ricane	-6151
rielle	-6152
unning	-6153
▁admir	-6154
▁analy	-6155
▁autop	-6156
▁basil	-6157
▁begun	-6158
▁blond	-6159
▁brief	-6160
▁cadet	-6161
▁costs	-6162
▁cough	-6163
▁cried	-6164
▁faces	-6165
▁fools	-6166
▁frame	-6167
▁jamie	-6168
▁label	-6169
▁naive	-6170
▁nazis	-6171
▁panic	-6172
▁ratan	-6173
▁refer	-6174
▁smash	-6175
▁spook	-6176
▁steve	-6177
▁surve	-6178
▁trail	-6179
▁traum	-6180
▁upper	-6181
▁wrist	-6182
istered	-6183
▁anyhow	-6184
▁breaks	-6185
▁candid	-6186
▁circle	-6187
▁compan	-6188
▁corrid	-6189
▁depend	-6190
▁dieter	-6191
▁dillon	-6192
▁donald	-6193
▁effort	-6194
▁hirsch	-6195
▁humans	-6196
▁joined	-6197
▁launch	-6198
▁length	-6199
▁locate	-6200
▁manual	-6201
▁marsha	-6202
▁narrow	-6203
▁parked	-6204
▁permit	-6205
▁reform	-6206
▁rotten	-6207
▁secure	-6208
▁serial	-6209
▁shitty	-6210
▁spoken	-6211
▁stands	-6212
▁stinks	-6213
▁throne	-6214
▁transl	-6215
ordinary	-6216
▁awfully	-6217
▁barrett	-6218
▁busting	-6219
▁butcher	-6220
▁channel	-6221
▁complex	-6222
▁digital	-6223
▁explore	-6224
▁germany	-6225
▁grandpa	-6226
▁granted	-6227
▁honored	-6228
▁invited	-6229
▁jessica	-6230
▁laughed	-6231
▁patriot	-6232
▁plumber	-6233
▁receipt	-6234
▁restaur	-6235
▁revenge	-6236
▁reverse	-6237
▁serving	-6238
▁settled	-6239
▁version	-6240
▁violent	-6241
▁whiskey	-6242
▁approxim	-6243
▁benedict	-6244
▁betrayed	-6245
▁convince	-6246
▁cowgirls	-6247
▁customer	-6248
▁directly	-6249
▁headache	-6250
▁informed	-6251
▁interrog	-6252
▁kentucky	-6253
▁mathilda	-6254
▁patience	-6255
▁presence	-6256
▁returned	-6257
▁scotland	-6258
▁suitcase	-6259
▁vampires	-6260
▁worrying	-6261
▁alexander	-6262
▁applejack	-6263
▁gabrielle	-6264
▁hurricane	-6265
▁invisible	-6266
▁judgement	-6267
▁manhattan	-6268
▁sanctuary	-6269
▁wednesday	-6270
▁atmosphere	-6271
▁background	-6272
▁compliment	-6273
▁protecting	-6274
▁remembered	-6275
▁surrounded	-6276
▁threatened	-6277
▁complaining	-6278
▁proposition	-6279
▁understands	-6280
▁construction	-6281
▁extraordinary	-6282
uh	-6283
yn	-6284
ali	-6285
dia	-6286
emo	-6287
hem	-6288
pse	-6289
rav	-6290
san	-6291
uji	-6292
zzy	-6293
▁il	-6294
athy	-6295
cker	-6296
core	-6297
ddya	-6298
efur	-6299
enth	-6300
eton	-6301
gery	-6302
hens	-6303
ijah	-6304
obal	-6305
onse	-6306
riss	-6307
thur	-6308
walk	-6309
what	-6310
▁bru	-6311
▁dod	-6312
▁git	-6313
▁jez	-6314
▁lux	-6315
▁pad	-6316
▁pip	-6317
▁pod	-6318
▁rag	-6319
▁ral	-6320
▁seb	-6321
▁suc	-6322
▁wri	-6323
arily	-6324
atory	-6325
esome	-6326
haust	-6327
leans	-6328
ously	-6329
riate	-6330
▁acid	-6331
▁anch	-6332
▁asia	-6333
▁athl	-6334
▁bass	-6335
▁bran	-6336
▁coin	-6337
▁cuba	-6338
▁enjo	-6339
▁flag	-6340
▁flew	-6341
▁jury	-6342
▁kess	-6343
▁knee	-6344
▁lect	-6345
▁lesb	-6346
▁mont	-6347
▁rang	-6348
▁rank	-6349
▁rear	-6350
▁reco	-6351
▁scen	-6352
▁shoe	-6353
▁silk	-6354
▁spit	-6355
▁tast	-6356
▁tops	-6357
▁toug	-6358
▁unex	-6359
emoise	-6360
ensive	-6361
omfort	-6362
rating	-6363
▁adopt	-6364
▁alibi	-6365
▁apply	-6366
▁crash	-6367
▁deals	-6368
▁drill	-6369
▁dudes	-6370
▁fella	-6371
▁fence	-6372
▁fiend	-6373
▁guilt	-6374
▁hardy	-6375
▁hicks	-6376
▁india	-6377
▁influ	-6378
▁latin	-6379
▁needn	-6380
▁niece	-6381
▁ranch	-6382
▁relie	-6383
▁rocks	-6384
▁rufus	-6385
▁snake	-6386
itution	-6387
nerable	-6388
▁agents	-6389
▁arthur	-6390
▁celebr	-6391
▁chriss	-6392
▁collar	-6393
▁cookie	-6394
▁cubans	-6395
▁darlin	-6396
▁deeper	-6397
▁detail	-6398
▁elijah	-6399
▁fabric	-6400
▁fooled	-6401
▁guests	-6402
▁honour	-6403
▁madame	-6404
▁manray	-6405
▁meyers	-6406
▁pistol	-6407
▁resent	-6408
▁rubber	-6409
▁series	-6410
▁strugg	-6411
▁teller	-6412
▁timing	-6413
▁whisky	-6414
▁woulda	-6415
grateful	-6416
▁amusing	-6417
▁andrews	-6418
▁article	-6419
▁awesome	-6420
▁becomes	-6421
▁bugging	-6422
▁causing	-6423
▁choices	-6424
▁deliber	-6425
▁despite	-6426
▁electro	-6427
▁exhaust	-6428
▁fashion	-6429
▁firefly	-6430
▁instant	-6431
▁kessler	-6432
▁lessons	-6433
▁lovejoy	-6434
▁mexican	-6435
▁nicolet	-6436
▁orleans	-6437
▁predict	-6438
▁pushing	-6439
▁romance	-6440
▁singing	-6441
▁therapy	-6442
▁treated	-6443
▁useless	-6444
▁whaddya	-6445
▁whatiya	-6446
▁whistle	-6447
▁worries	-6448
emoiselle	-6449
▁cheating	-6450
▁crossing	-6451
▁describe	-6452
▁detonate	-6453
▁district	-6454
▁elevator	-6455
▁enjoying	-6456
▁exchange	-6457
▁football	-6458
▁gambling	-6459
▁governor	-6460
▁homicide	-6461
▁humanity	-6462
▁invented	-6463
▁mistaken	-6464
▁moreover	-6465
▁nineteen	-6466
▁paradise	-6467
▁republic	-6468
▁sacrific	-6469
▁sandefur	-6470
▁slightly	-6471
▁specific	-6472
▁suffered	-6473
▁superior	-6474
▁surveill	-6475
▁teaching	-6476
▁teasdale	-6477
▁challenge	-6478
▁inspector	-6479
▁literally	-6480
▁protected	-6481
▁reference	-6482
▁reporters	-6483
▁righteous	-6484
▁shoulders	-6485
▁signature	-6486
▁technical	-6487
▁telephone	-6488
▁treatment	-6489
▁underwear	-6490
▁passengers	-6491
▁treadstone	-6492
▁ungrateful	-6493
▁vulnerable	-6494
▁engineering	-6495
▁investigator	-6496
▁mademoiselle	-6497
▁confidentiality	-6498
eu	-6499
bro	-6500
bug	-6501
gus	-6502
hal	-6503
isy	-6504
old	-6505
ooo	-6506
rol	-6507
ses	-6508
und	-6509
▁gw	-6510
avia	-6511
ckey	-6512
ener	-6513
face	-6514
hara	-6515
iana	-6516
ieri	-6517
ivie	-6518
nard	-6519
odes	-6520
odka	-6521
onym	-6522
osal	-6523
rice	-6524
stic	-6525
will	-6526
▁dna	-6527
▁fog	-6528
▁kim	-6529
▁nag	-6530
▁oxy	-6531
anced	-6532
arter	-6533
asant	-6534
eeloo	-6535
erved	-6536
guing	-6537
iance	-6538
llian	-6539
mouth	-6540
oenix	-6541
osite	-6542
osity	-6543
quest	-6544
ridge	-6545
stern	-6546
ureau	-6547
uries	-6548
▁bait	-6549
▁bask	-6550
▁belt	-6551
▁berg	-6552
▁boot	-6553
▁bugs	-6554
▁clem	-6555
▁crop	-6556
▁flee	-6557
▁fork	-6558
▁grat	-6559
▁grid	-6560
▁kate	-6561
▁lama	-6562
▁lamb	-6563
▁lawn	-6564
▁leak	-6565
▁levi	-6566
▁lugg	-6567
▁mice	-6568
▁nasa	-6569
▁pawn	-6570
▁pimp	-6571
▁pope	-6572
▁pour	-6573
▁reve	-6574
▁rode	-6575
▁sits	-6576
▁slay	-6577
▁summ	-6578
▁tack	-6579
▁thou	-6580
▁tone	-6581
▁turk	-6582
action	-6583
affrey	-6584
iviere	-6585
ulated	-6586
▁amate	-6587
▁basis	-6588
▁becky	-6589
▁bible	-6590
▁bluff	-6591
▁chuck	-6592
▁coord	-6593
▁dealt	-6594
▁dough	-6595
▁faced	-6596
▁femin	-6597
▁flash	-6598
▁havin	-6599
▁immig	-6600
▁indiv	-6601
▁julia	-6602
▁kings	-6603
▁labor	-6604
▁laser	-6605
▁lenny	-6606
▁lydia	-6607
▁micro	-6608
▁owner	-6609
▁pengu	-6610
▁picks	-6611
▁quart	-6612
▁quint	-6613
▁rizzo	-6614
▁romeo	-6615
▁ryuji	-6616
▁salad	-6617
▁scrap	-6618
▁steak	-6619
▁straw	-6620
▁sunny	-6621
▁tempt	-6622
▁vodka	-6623
▁warne	-6624
▁welsh	-6625
▁actual	-6626
▁adrian	-6627
▁applic	-6628
▁bitter	-6629
▁blamed	-6630
▁bureau	-6631
▁coffin	-6632
▁counts	-6633
▁creeps	-6634
▁dishes	-6635
▁easter	-6636
▁forbid	-6637
▁freeze	-6638
▁higher	-6639
▁histor	-6640
▁hubley	-6641
▁leeloo	-6642
▁malfun	-6643
▁mechan	-6644
▁mental	-6645
▁mortal	-6646
▁murphy	-6647
▁nurses	-6648
▁option	-6649
▁outfit	-6650
▁oxygen	-6651
▁palmer	-6652
▁pupils	-6653
▁purely	-6654
▁random	-6655
▁ransom	-6656
▁repair	-6657
▁robbed	-6658
▁sealed	-6659
▁select	-6660
▁senses	-6661
▁sleepy	-6662
▁stanzi	-6663
▁sticks	-6664
▁transp	-6665
▁warner	-6666
▁wishes	-6667
▁worthy	-6668
▁writer	-6669
▁academy	-6670
▁advance	-6671
▁balance	-6672
▁bergman	-6673
▁chopped	-6674
▁current	-6675
▁custody	-6676
▁customs	-6677
▁engines	-6678
▁figures	-6679
▁gardner	-6680
▁gesture	-6681
▁grandma	-6682
▁hartman	-6683
▁helpful	-6684
▁highest	-6685
▁jackson	-6686
▁lillian	-6687
▁luggage	-6688
▁massive	-6689
▁natives	-6690
▁niggers	-6691
▁panties	-6692
▁phoenix	-6693
▁players	-6694
▁proceed	-6695
▁pumpkin	-6696
▁quietly	-6697
▁robbery	-6698
▁salvage	-6699
▁seeking	-6700
▁selfish	-6701
▁shelter	-6702
▁smarter	-6703
▁species	-6704
▁squeeze	-6705
▁strateg	-6706
▁succeed	-6707
▁traitor	-6708
▁unbelie	-6709
▁vietnam	-6710
▁waddaya	-6711
▁bothered	-6712
▁certific	-6713
▁contrary	-6714
▁corridor	-6715
▁division	-6716
▁document	-6717
▁floating	-6718
▁independ	-6719
▁instinct	-6720
▁marshall	-6721
▁messages	-6722
▁opposite	-6723
▁producer	-6724
▁sheronda	-6725
▁shithead	-6726
▁troubles	-6727
▁adventure	-6728
▁buildings	-6729
▁delicious	-6730
▁fortunate	-6731
▁hamburger	-6732
▁lariviere	-6733
▁magazines	-6734
▁mccaffrey	-6735
▁possessed	-6736
▁potential	-6737
▁scientist	-6738
▁sentiment	-6739
▁testimony	-6740
▁convenient	-6741
▁exposition	-6742
▁registered	-6743
▁girlfriends	-6744
▁imagination	-6745
▁consequences	-6746
▁deliberately	-6747
▁psychologist	-6748
▁surveillance	-6749
▁approximately	-6750
bie	-6751
bot	-6752
enn	-6753
eve	-6754
hel	-6755
hhh	-6756
ini	-6757
jay	-6758
lve	-6759
omi	-6760
oot	-6761
ras	-6762
▁mt	-6763
ango	-6764
arte	-6765
atha	-6766
ddle	-6767
eeth	-6768
hold	-6769
leaf	-6770
leod	-6771
ousy	-6772
rial	-6773
sion	-6774
uals	-6775
utch	-6776
yard	-6777
zzie	-6778
▁amy	-6779
▁bak	-6780
▁env	-6781
▁fee	-6782
▁fry	-6783
▁gat	-6784
▁gau	-6785
▁hee	-6786
▁hem	-6787
▁hid	-6788
▁hug	-6789
▁ich	-6790
▁lis	-6791
▁mim	-6792
▁nex	-6793
▁nom	-6794
▁poo	-6795
▁pry	-6796
▁pub	-6797
▁rey	-6798
▁rod	-6799
▁unp	-6800
▁vou	-6801
aning	-6802
eered	-6803
erick	-6804
iture	-6805
leigh	-6806
nolds	-6807
orate	-6808
store	-6809
table	-6810
worth	-6811
zburg	-6812
▁bene	-6813
▁bers	-6814
▁beth	-6815
▁brat	-6816
▁carr	-6817
▁coop	-6818
▁crit	-6819
▁dino	-6820
▁dork	-6821
▁ergo	-6822
▁feds	-6823
▁fulf	-6824
▁gaye	-6825
▁goal	-6826
▁hood	-6827
▁hush	-6828
▁inqu	-6829
▁kore	-6830
▁mini	-6831
▁nazi	-6832
▁niki	-6833
▁noon	-6834
▁nort	-6835
▁ouch	-6836
▁palm	-6837
▁pean	-6838
▁plug	-6839
▁pond	-6840
▁rats	-6841
▁root	-6842
▁sank	-6843
▁sche	-6844
▁slut	-6845
▁soda	-6846
▁suns	-6847
▁wave	-6848
▁weal	-6849
▁wrap	-6850
astian	-6851
ulsive	-6852
ulting	-6853
velope	-6854
▁adams	-6855
▁alike	-6856
▁arson	-6857
▁badge	-6858
▁bizar	-6859
▁blows	-6860
▁bribe	-6861
▁cerem	-6862
▁chink	-6863
▁croup	-6864
▁crumb	-6865
▁dates	-6866
▁disci	-6867
▁doole	-6868
▁drops	-6869
▁dugan	-6870
▁enter	-6871
▁finan	-6872
▁gozer	-6873
▁habit	-6874
▁ketch	-6875
▁marsh	-6876
▁muddy	-6877
▁naomi	-6878
▁niner	-6879
▁persu	-6880
▁prost	-6881
▁puppy	-6882
▁rains	-6883
▁ralph	-6884
▁safer	-6885
▁shell	-6886
▁ships	-6887
▁signs	-6888
▁simpl	-6889
▁sorta	-6890
▁spoil	-6891
▁spray	-6892
▁stare	-6893
▁subst	-6894
▁suite	-6895
▁sweep	-6896
▁toast	-6897
▁velve	-6898
▁whack	-6899
aminski	-6900
enstein	-6901
▁active	-6902
▁anonym	-6903
▁carrie	-6904
▁checks	-6905
▁covers	-6906
▁driven	-6907
▁earned	-6908
▁estate	-6909
▁filthy	-6910
▁firing	-6911
▁global	-6912
▁greene	-6913
▁guards	-6914
▁guitar	-6915
▁heroes	-6916
▁houses	-6917
▁jezzie	-6918
▁larger	-6919
▁marion	-6920
▁merely	-6921
▁mighty	-6922
▁modern	-6923
▁newcom	-6924
▁orange	-6925
▁plates	-6926
▁playin	-6927
▁probie	-6928
▁review	-6929
▁singer	-6930
▁sphere	-6931
▁tempor	-6932
▁terror	-6933
▁thrill	-6934
▁triump	-6935
▁ugarte	-6936
▁wicked	-6937
▁witwer	-6938
▁worlds	-6939
onscious	-6940
▁airline	-6941
▁airlock	-6942
▁beaches	-6943
▁berserk	-6944
▁capture	-6945
▁conspir	-6946
▁culture	-6947
▁dismiss	-6948
▁dreamed	-6949
▁eastern	-6950
▁freddie	-6951
▁fulfill	-6952
▁grabbed	-6953
▁hostile	-6954
▁individ	-6955
▁landing	-6956
▁looting	-6957
▁macleod	-6958
▁madness	-6959
▁members	-6960
▁motorcy	-6961
▁payroll	-6962
▁pennies	-6963
▁posters	-6964
▁presume	-6965
▁refuses	-6966
▁salieri	-6967
▁siddown	-6968
▁smaller	-6969
▁sucking	-6970
▁superst	-6971
▁surface	-6972
▁surgeon	-6973
▁teasing	-6974
▁western	-6975
▁wheeler	-6976
▁worship	-6977
▁wounded	-6978
▁activity	-6979
▁assigned	-6980
▁disaster	-6981
▁dressing	-6982
▁envelope	-6983
▁examined	-6984
▁fingerna	-6985
▁fingerpr	-6986
▁hardcore	-6987
▁intended	-6988
▁kaminski	-6989
▁kayleigh	-6990
▁pentagon	-6991
▁register	-6992
▁requires	-6993
▁reynolds	-6994
▁salzburg	-6995
▁smashing	-6996
▁sticking	-6997
▁stronger	-6998
▁swinging	-6999
▁treating	-7000
▁visiting	-7001
omfortable	-7002
▁advantage	-7003
▁alcoholic	-7004
▁celebrate	-7005
▁chemistry	-7006
▁computers	-7007
▁connected	-7008
▁decisions	-7009
▁disturbed	-7010
▁education	-7011
▁explosion	-7012
▁frederick	-7013
▁furniture	-7014
▁goddamned	-7015
▁looseleaf	-7016
▁ministers	-7017
▁negotiate	-7018
▁passenger	-7019
▁publicity	-7020
▁relatives	-7021
▁sanderson	-7022
▁sebastian	-7023
▁standards	-7024
▁structure	-7025
▁undressed	-7026
▁assignment	-7027
▁classified	-7028
▁delivering	-7029
▁determined	-7030
▁introduced	-7031
▁physically	-7032
▁production	-7033
▁restaurant	-7034
▁scientists	-7035
▁supposedly	-7036
▁appropriate	-7037
▁combination	-7038
▁destruction	-7039
▁differently	-7040
▁threatening	-7041
▁instructions	-7042
▁stenographer	-7043
▁supernatural	-7044
▁unbelievable	-7045
▁concentration	-7046
▁entertainment	-7047
▁uncomfortable	-7048
zo	-7049
▁q	-7050
ads	-7051
aid	-7052
asp	-7053
bit	-7054
cco	-7055
eau	-7056
ena	-7057
fta	-7058
ids	-7059
ita	-7060
jah	-7061
liv	-7062
mar	-7063
oma	-7064
tim	-7065
ura	-7066
uul	-7067
wyn	-7068
▁ot	-7069
aign	-7070
fere	-7071
hend	-7072
hole	-7073
illa	-7074
izes	-7075
oids	-7076
omed	-7077
oooo	-7078
osis	-7079
oule	-7080
oust	-7081
pton	-7082
rase	-7083
▁bul	-7084
▁emb	-7085
▁flu	-7086
▁gib	-7087
▁glo	-7088
▁heh	-7089
▁jas	-7090
▁mig	-7091
▁nun	-7092
▁pam	-7093
▁sla	-7094
▁sod	-7095
▁tam	-7096
▁vib	-7097
▁wee	-7098
andal	-7099
angle	-7100
berry	-7101
borne	-7102
elled	-7103
eryll	-7104
iding	-7105
orsia	-7106
oster	-7107
ueger	-7108
usive	-7109
witty	-7110
▁batt	-7111
▁boil	-7112
▁bone	-7113
▁buzz	-7114
▁cass	-7115
▁chew	-7116
▁chin	-7117
▁chow	-7118
▁cosm	-7119
▁crus	-7120
▁cuts	-7121
▁gene	-7122
▁hint	-7123
▁jerk	-7124
▁myra	-7125
▁nuth	-7126
▁pest	-7127
▁pipe	-7128
▁purs	-7129
▁rags	-7130
▁reck	-7131
▁seth	-7132
▁soap	-7133
▁spic	-7134
▁trag	-7135
▁tune	-7136
▁uses	-7137
▁vibe	-7138
▁walt	-7139
▁zuul	-7140
antine	-7141
cience	-7142
ctions	-7143
culiar	-7144
ension	-7145
inates	-7146
itated	-7147
ormous	-7148
ployed	-7149
uments	-7150
▁aster	-7151
▁backd	-7152
▁betty	-7153
▁blade	-7154
▁bravo	-7155
▁bully	-7156
▁butch	-7157
▁cared	-7158
▁chaos	-7159
▁chose	-7160
▁crawl	-7161
▁davis	-7162
▁delay	-7163
▁ditch	-7164
▁dummy	-7165
▁fires	-7166
▁gifts	-7167
▁greek	-7168
▁hafta	-7169
▁hairy	-7170
▁handy	-7171
▁ignor	-7172
▁incon	-7173
▁lobby	-7174
▁lotta	-7175
▁maria	-7176
▁oblig	-7177
▁owned	-7178
▁plumb	-7179
▁prett	-7180
▁purse	-7181
▁ramos	-7182
▁socks	-7183
▁spite	-7184
▁stalk	-7185
▁stops	-7186
▁swore	-7187
▁trash	-7188
▁trump	-7189
▁units	-7190
harajah	-7191
mission	-7192
ography	-7193
▁amanda	-7194
▁audrey	-7195
▁barbar	-7196
▁behalf	-7197
▁beryll	-7198
▁breast	-7199
▁brutal	-7200
▁budget	-7201
▁callin	-7202
▁carpet	-7203
▁casper	-7204
▁chicks	-7205
▁collea	-7206
▁conver	-7207
▁corpse	-7208
▁cranes	-7209
▁dancer	-7210
▁degree	-7211
▁dorsia	-7212
▁editor	-7213
▁fierce	-7214
▁fights	-7215
▁francs	-7216
▁garden	-7217
▁gloria	-7218
▁halluc	-7219
▁hooked	-7220
▁infant	-7221
▁infect	-7222
▁insect	-7223
▁intact	-7224
▁interp	-7225
▁jersey	-7226
▁landed	-7227
▁midget	-7228
▁morgue	-7229
▁murray	-7230
▁naught	-7231
▁neighb	-7232
▁photos	-7233
▁powell	-7234
▁prayer	-7235
▁remove	-7236
▁retard	-7237
▁richie	-7238
▁sittin	-7239
▁smokes	-7240
▁sucked	-7241
▁thrown	-7242
▁trucks	-7243
▁uptown	-7244
▁webber	-7245
▁wheels	-7246
aintance	-7247
cription	-7248
▁absence	-7249
▁attacks	-7250
▁benefit	-7251
▁bourbon	-7252
▁butterf	-7253
▁cameras	-7254
▁closest	-7255
▁content	-7256
▁cousins	-7257
▁cripple	-7258
▁dealers	-7259
▁display	-7260
▁dreamer	-7261
▁effects	-7262
▁explode	-7263
▁grenade	-7264
▁halfdan	-7265
▁happier	-7266
▁highway	-7267
▁include	-7268
▁indians	-7269
▁junebug	-7270
▁krueger	-7271
▁leading	-7272
▁library	-7273
▁loyalty	-7274
▁matches	-7275
▁matthew	-7276
▁maurice	-7277
▁mercury	-7278
▁network	-7279
▁produce	-7280
▁reached	-7281
▁reports	-7282
▁returns	-7283
▁runaway	-7284
▁sailing	-7285
▁secured	-7286
▁shocked	-7287
▁strader	-7288
▁swedish	-7289
▁sweeney	-7290
▁threats	-7291
▁travels	-7292
▁valerie	-7293
▁virgins	-7294
▁visitor	-7295
▁whatcha	-7296
▁workers	-7297
▁ballroom	-7298
▁banister	-7299
▁citizens	-7300
▁compound	-7301
▁croupier	-7302
▁diamonds	-7303
▁dickhead	-7304
▁dunwitty	-7305
▁enormous	-7306
▁fabulous	-7307
▁franklin	-7308
▁gracious	-7309
▁judgment	-7310
▁ministry	-7311
▁minority	-7312
▁passport	-7313
▁patients	-7314
▁peculiar	-7315
▁recovery	-7316
▁screwing	-7317
▁ultimate	-7318
▁vanished	-7319
▁anonymous	-7320
▁basically	-7321
▁beryllium	-7322
▁bookstore	-7323
▁childhood	-7324
▁continued	-7325
▁fashioned	-7326
▁graduated	-7327
▁interfere	-7328
▁kidnapped	-7329
▁louisiana	-7330
▁maharajah	-7331
▁pregnancy	-7332
▁requested	-7333
▁separated	-7334
▁conscience	-7335
▁constantly	-7336
▁friendship	-7337
▁louisville	-7338
▁nightmares	-7339
▁scientific	-7340
▁traditional	-7341
▁acquaintance	-7342
▁disappearance	-7343
▁interrogation	-7344
▁investigating	-7345
▁relationships	-7346
fl	-7347
uu	-7348
ado	-7349
aly	-7350
apt	-7351
avo	-7352
ban	-7353
box	-7354
dra	-7355
gha	-7356
imm	-7357
lov	-7358
now	-7359
oir	-7360
ows	-7361
▁ax	-7362
▁dj	-7363
▁wy	-7364
adys	-7365
ales	-7366
bula	-7367
cast	-7368
cles	-7369
eves	-7370
hers	-7371
inky	-7372
ival	-7373
lied	-7374
phis	-7375
pley	-7376
quar	-7377
rain	-7378
semb	-7379
shaw	-7380
sons	-7381
step	-7382
ugos	-7383
uted	-7384
vant	-7385
▁agg	-7386
▁ahh	-7387
▁aly	-7388
▁bry	-7389
▁dip	-7390
▁ein	-7391
▁fox	-7392
▁hip	-7393
▁ing	-7394
▁jag	-7395
▁maf	-7396
▁ned	-7397
▁oct	-7398
▁ped	-7399
▁pir	-7400
▁pul	-7401
▁rit	-7402
▁sym	-7403
▁vic	-7404
▁voy	-7405
▁wra	-7406
ables	-7407
acity	-7408
ankot	-7409
asser	-7410
break	-7411
enger	-7412
hicle	-7413
icate	-7414
itled	-7415
lfare	-7416
matic	-7417
nesia	-7418
otted	-7419
ppers	-7420
rieve	-7421
ufact	-7422
▁alab	-7423
▁anni	-7424
▁brun	-7425
▁caps	-7426
▁carn	-7427
▁craz	-7428
▁dorn	-7429
▁doub	-7430
▁emma	-7431
▁eyed	-7432
▁fans	-7433
▁fuss	-7434
▁glow	-7435
▁gret	-7436
▁irre	-7437
▁lend	-7438
▁lili	-7439
▁loop	-7440
▁maze	-7441
▁mere	-7442
▁myth	-7443
▁ooze	-7444
▁outs	-7445
▁peer	-7446
▁penc	-7447
▁scam	-7448
▁skip	-7449
▁soil	-7450
▁span	-7451
▁stir	-7452
▁subs	-7453
▁thee	-7454
▁tomb	-7455
▁worn	-7456
▁yess	-7457
▁zimm	-7458
▁zone	-7459
allows	-7460
coming	-7461
hilles	-7462
hitect	-7463
ipping	-7464
lihood	-7465
pering	-7466
rences	-7467
vation	-7468
▁brush	-7469
▁carol	-7470
▁cartw	-7471
▁cells	-7472
▁chill	-7473
▁cocks	-7474
▁crown	-7475
▁diego	-7476
▁excit	-7477
▁flood	-7478
▁forms	-7479
▁gland	-7480
▁greet	-7481
▁imper	-7482
▁incom	-7483
▁incre	-7484
▁laund	-7485
▁lemon	-7486
▁lousy	-7487
▁maker	-7488
▁meets	-7489
▁memor	-7490
▁messy	-7491
▁mikey	-7492
▁mmmmm	-7493
▁momma	-7494
▁nails	-7495
▁nexus	-7496
▁novel	-7497
▁oscar	-7498
▁persp	-7499
▁pitch	-7500
▁posed	-7501
▁prote	-7502
▁renew	-7503
▁rusty	-7504
▁saint	-7505
▁santa	-7506
▁sells	-7507
▁shack	-7508
▁shown	-7509
▁sides	-7510
▁slime	-7511
▁smack	-7512
▁surre	-7513
▁susie	-7514
▁therm	-7515
▁thick	-7516
▁trees	-7517
▁tsavo	-7518
▁twins	-7519
▁unexp	-7520
▁vague	-7521
▁waits	-7522
▁wears	-7523
enteeth	-7524
ounding	-7525
▁addict	-7526
▁agatha	-7527
▁albany	-7528
▁allows	-7529
▁alyssa	-7530
▁anchor	-7531
▁arrive	-7532
▁attend	-7533
▁backed	-7534
▁beaten	-7535
▁beside	-7536
▁buster	-7537
▁campus	-7538
▁castro	-7539
▁circus	-7540
▁classy	-7541
▁cockro	-7542
▁copper	-7543
▁crimes	-7544
▁dammit	-7545
▁defect	-7546
▁devils	-7547
▁dooley	-7548
▁dublin	-7549
▁edward	-7550
▁fields	-7551
▁freaks	-7552
▁ghosts	-7553
▁gladys	-7554
▁integr	-7555
▁jammed	-7556
▁laughs	-7557
▁levels	-7558
▁losers	-7559
▁marshm	-7560
▁mickey	-7561
▁muscle	-7562
▁mutual	-7563
▁nebula	-7564
▁nicely	-7565
▁ninety	-7566
▁packed	-7567
▁pankot	-7568
▁placed	-7569
▁powder	-7570
▁prints	-7571
▁proxim	-7572
▁puttin	-7573
▁racket	-7574
▁ripley	-7575
▁ronald	-7576
▁runner	-7577
▁sarris	-7578
▁severe	-7579
▁shorty	-7580
▁skinny	-7581
▁suffer	-7582
▁supply	-7583
▁temple	-7584
▁tossed	-7585
▁tracks	-7586
▁velvet	-7587
▁volume	-7588
▁wilson	-7589
▁wisdom	-7590
ications	-7591
▁anytime	-7592
▁assumed	-7593
▁autopsy	-7594
▁battery	-7595
▁bizarre	-7596
▁bondage	-7597
▁bottles	-7598
▁cassius	-7599
▁cheated	-7600
▁compass	-7601
▁confirm	-7602
▁cunning	-7603
▁cyclops	-7604
▁dischar	-7605
▁element	-7606
▁fooling	-7607
▁gambler	-7608
▁hitchhi	-7609
▁kicking	-7610
▁leaders	-7611
▁leather	-7612
▁maniacs	-7613
▁measure	-7614
▁memphis	-7615
▁moments	-7616
▁neutral	-7617
▁operate	-7618
▁passage	-7619
▁quality	-7620
▁remains	-7621
▁risking	-7622
▁schedul	-7623
▁severed	-7624
▁shooter	-7625
▁shortly	-7626
▁silence	-7627
▁spectac	-7628
▁stretch	-7629
▁studied	-7630
▁typical	-7631
▁vallens	-7632
▁vehicle	-7633
▁welfare	-7634
▁abortion	-7635
▁achilles	-7636
▁anderton	-7637
▁attached	-7638
▁campaign	-7639
▁captured	-7640
▁ceremony	-7641
▁civilian	-7642
▁clifford	-7643
▁clothing	-7644
▁courtney	-7645
▁deserved	-7646
▁discreet	-7647
▁dragging	-7648
▁elephant	-7649
▁entering	-7650
▁entitled	-7651
▁gretchen	-7652
▁internal	-7653
▁italians	-7654
▁machines	-7655
▁manufact	-7656
▁mortgage	-7657
▁obsessed	-7658
▁peerless	-7659
▁prisoner	-7660
▁promises	-7661
▁solution	-7662
▁sounding	-7663
▁southern	-7664
▁starters	-7665
▁stranger	-7666
▁strasser	-7667
▁strictly	-7668
▁sunlight	-7669
▁supervis	-7670
▁transfer	-7671
▁waitress	-7672
▁wickwire	-7673
▁architect	-7674
▁communist	-7675
▁discussed	-7676
▁exhausted	-7677
▁generally	-7678
▁honorable	-7679
▁marriages	-7680
▁messenger	-7681
▁qualified	-7682
▁spreading	-7683
▁suspended	-7684
▁transport	-7685
▁traveling	-7686
▁wandering	-7687
▁controlled	-7688
▁directions	-7689
▁discussion	-7690
▁excitement	-7691
▁expression	-7692
▁greenteeth	-7693
▁honeythorn	-7694
▁importance	-7695
▁mysterious	-7696
▁prostitute	-7697
▁questioned	-7698
▁retirement	-7699
▁statements	-7700
▁disturbance	-7701
▁fascinating	-7702
▁fingernails	-7703
▁independent	-7704
▁malfunction	-7705
▁permanently	-7706
▁respectable	-7707
▁technically	-7708
▁civilization	-7709
▁incidentally	-7710
▁psychiatrist	-7711
▁international	-7712
▁possibilities	-7713
tt	-7714
ua	-7715
uv	-7716
bag	-7717
cox	-7718
ems	-7719
eng	-7720
eri	-7721
ias	-7722
iel	-7723
oos	-7724
pit	-7725
ppa	-7726
rah	-7727
raq	-7728
you	-7729
anne	-7730
cing	-7731
dock	-7732
gent	-7733
grim	-7734
hamm	-7735
iary	-7736
ibly	-7737
igan	-7738
iman	-7739
issy	-7740
izza	-7741
llll	-7742
name	-7743
oura	-7744
phic	-7745
rari	-7746
rels	-7747
risa	-7748
shan	-7749
shot	-7750
uded	-7751
umps	-7752
unky	-7753
wash	-7754
witt	-7755
▁ank	-7756
▁dil	-7757
▁eag	-7758
▁etc	-7759
▁gle	-7760
▁haz	-7761
▁lex	-7762
▁lon	-7763
▁nit	-7764
▁ove	-7765
▁rib	-7766
▁rim	-7767
▁ske	-7768
▁tee	-7769
▁von	-7770
▁wiz	-7771
armed	-7772
asing	-7773
bbing	-7774
burgh	-7775
ccoon	-7776
chest	-7777
hears	-7778
iable	-7779
icion	-7780
inery	-7781
inger	-7782
inite	-7783
keley	-7784
known	-7785
lance	-7786
lavia	-7787
lined	-7788
ormed	-7789
osure	-7790
ptoms	-7791
pture	-7792
shine	-7793
▁apes	-7794
▁beds	-7795
▁buys	-7796
▁chum	-7797
▁cows	-7798
▁drew	-7799
▁flav	-7800
▁flea	-7801
▁flor	-7802
▁fond	-7803
▁foul	-7804
▁fris	-7805
▁fuel	-7806
▁glue	-7807
▁goof	-7808
▁haul	-7809
▁haze	-7810
▁heav	-7811
▁hose	-7812
▁iraq	-7813
▁jane	-7814
▁jell	-7815
▁kens	-7816
▁kong	-7817
▁limp	-7818
▁mush	-7819
▁oleg	-7820
▁pine	-7821
▁pork	-7822
▁pros	-7823
▁reek	-7824
▁rend	-7825
▁rene	-7826
▁rice	-7827
▁rude	-7828
▁schi	-7829
▁scum	-7830
▁scur	-7831
▁slap	-7832
▁slob	-7833
▁sust	-7834
▁tatt	-7835
▁taxi	-7836
▁torn	-7837
▁trub	-7838
▁vern	-7839
▁yllo	-7840
▁yuri	-7841
buster	-7842
derick	-7843
hammad	-7844
hedral	-7845
ifying	-7846
ington	-7847
itable	-7848
itious	-7849
urning	-7850
valier	-7851
▁abuse	-7852
▁alert	-7853
▁ammun	-7854
▁annoy	-7855
▁april	-7856
▁arena	-7857
▁arrow	-7858
▁bayon	-7859
▁beams	-7860
▁bloom	-7861
▁booze	-7862
▁brody	-7863
▁click	-7864
▁coach	-7865
▁daisy	-7866
▁darcy	-7867
▁delac	-7868
▁depth	-7869
▁disre	-7870
▁draft	-7871
▁elvis	-7872
▁enlar	-7873
▁envir	-7874
▁ether	-7875
▁exped	-7876
▁filed	-7877
▁focus	-7878
▁fraud	-7879
▁gates	-7880
▁groom	-7881
▁imply	-7882
▁jelly	-7883
▁juice	-7884
▁jumbo	-7885
▁landy	-7886
▁liner	-7887
▁marco	-7888
▁minus	-7889
▁patty	-7890
▁perry	-7891
▁pipes	-7892
▁pizza	-7893
▁prize	-7894
▁radar	-7895
▁rainc	-7896
▁reads	-7897
▁recru	-7898
▁ridge	-7899
▁rings	-7900
▁roast	-7901
▁rumor	-7902
▁seats	-7903
▁sends	-7904
▁sissy	-7905
▁sniff	-7906
▁spots	-7907
▁steam	-7908
▁swine	-7909
▁takin	-7910
▁tasty	-7911
▁tools	-7912
▁toxic	-7913
▁tries	-7914
▁utter	-7915
▁veins	-7916
▁weigh	-7917
▁wings	-7918
▁wiped	-7919
▁worms	-7920
▁yugos	-7921
▁belief	-7922
▁bryant	-7923
▁cancer	-7924
▁carbon	-7925
▁chased	-7926
▁cheeks	-7927
▁claire	-7928
▁compre	-7929
▁digest	-7930
▁doubts	-7931
▁drives	-7932
▁dumped	-7933
▁ending	-7934
▁expose	-7935
▁gently	-7936
▁hanged	-7937
▁harbor	-7938
▁hatred	-7939
▁inches	-7940
▁jennie	-7941
▁liking	-7942
▁liquid	-7943
▁marked	-7944
▁martha	-7945
▁medium	-7946
▁needle	-7947
▁nobles	-7948
▁patron	-7949
▁preach	-7950
▁purple	-7951
▁recent	-7952
▁reggie	-7953
▁restra	-7954
▁reveal	-7955
▁revers	-7956
▁rumors	-7957
▁safely	-7958
▁starve	-7959
▁steven	-7960
▁tragic	-7961
▁turkey	-7962
▁valent	-7963
▁vernon	-7964
▁	-7965
e	-7966
t	-7967
o	-7968
a	-7969
i	-7970
n	-7971
h	-7972
s	-7973
r	-7974
l	-7975
u	-7976
.	-7977
d	-7978
y	-7979
w	-7980
m	-7981
g	-7982
c	-7983
f	-7984
b	-7985
k	-7986
p	-7987
,	-7988
v	-7989
?	-7990
!	-7991
j	-7992
x	-7993
z	-7994
q	-7995
